node {
  name: "global_step/Initializer/zeros"
  op: "Const"
  attr {
    key: "_class"
    value {
      list {
        s: "loc:@global_step"
      }
    }
  }
  attr {
    key: "_output_shapes"
    value {
      list {
        shape {
        }
      }
    }
  }
  attr {
    key: "dtype"
    value {
      type: DT_INT64
    }
  }
  attr {
    key: "value"
    value {
      tensor {
        dtype: DT_INT64
        tensor_shape {
        }
        int64_val: 0
      }
    }
  }
}
node {
  name: "global_step"
  op: "VariableV2"
  attr {
    key: "_class"
    value {
      list {
        s: "loc:@global_step"
      }
    }
  }
  attr {
    key: "_output_shapes"
    value {
      list {
        shape {
        }
      }
    }
  }
  attr {
    key: "container"
    value {
      s: ""
    }
  }
  attr {
    key: "dtype"
    value {
      type: DT_INT64
    }
  }
  attr {
    key: "shape"
    value {
      shape {
      }
    }
  }
  attr {
    key: "shared_name"
    value {
      s: ""
    }
  }
}
node {
  name: "global_step/Assign"
  op: "Assign"
  input: "global_step"
  input: "global_step/Initializer/zeros"
  attr {
    key: "T"
    value {
      type: DT_INT64
    }
  }
  attr {
    key: "_class"
    value {
      list {
        s: "loc:@global_step"
      }
    }
  }
  attr {
    key: "_output_shapes"
    value {
      list {
        shape {
        }
      }
    }
  }
  attr {
    key: "use_locking"
    value {
      b: true
    }
  }
  attr {
    key: "validate_shape"
    value {
      b: true
    }
  }
}
node {
  name: "global_step/read"
  op: "Identity"
  input: "global_step"
  attr {
    key: "T"
    value {
      type: DT_INT64
    }
  }
  attr {
    key: "_class"
    value {
      list {
        s: "loc:@global_step"
      }
    }
  }
  attr {
    key: "_output_shapes"
    value {
      list {
        shape {
        }
      }
    }
  }
}
node {
  name: "global_step/IsVariableInitialized"
  op: "IsVariableInitialized"
  input: "global_step"
  attr {
    key: "_class"
    value {
      list {
        s: "loc:@global_step"
      }
    }
  }
  attr {
    key: "_output_shapes"
    value {
      list {
        shape {
        }
      }
    }
  }
  attr {
    key: "dtype"
    value {
      type: DT_INT64
    }
  }
}
node {
  name: "global_step/cond/Switch"
  op: "Switch"
  input: "global_step/IsVariableInitialized"
  input: "global_step/IsVariableInitialized"
  attr {
    key: "T"
    value {
      type: DT_BOOL
    }
  }
  attr {
    key: "_output_shapes"
    value {
      list {
        shape {
        }
        shape {
        }
      }
    }
  }
}
node {
  name: "global_step/cond/switch_t"
  op: "Identity"
  input: "global_step/cond/Switch:1"
  attr {
    key: "T"
    value {
      type: DT_BOOL
    }
  }
  attr {
    key: "_output_shapes"
    value {
      list {
        shape {
        }
      }
    }
  }
}
node {
  name: "global_step/cond/switch_f"
  op: "Identity"
  input: "global_step/cond/Switch"
  attr {
    key: "T"
    value {
      type: DT_BOOL
    }
  }
  attr {
    key: "_output_shapes"
    value {
      list {
        shape {
        }
      }
    }
  }
}
node {
  name: "global_step/cond/pred_id"
  op: "Identity"
  input: "global_step/IsVariableInitialized"
  attr {
    key: "T"
    value {
      type: DT_BOOL
    }
  }
  attr {
    key: "_output_shapes"
    value {
      list {
        shape {
        }
      }
    }
  }
}
node {
  name: "global_step/cond/read"
  op: "Identity"
  input: "global_step/cond/read/Switch:1"
  attr {
    key: "T"
    value {
      type: DT_INT64
    }
  }
  attr {
    key: "_output_shapes"
    value {
      list {
        shape {
        }
      }
    }
  }
}
node {
  name: "global_step/cond/read/Switch"
  op: "RefSwitch"
  input: "global_step"
  input: "global_step/cond/pred_id"
  attr {
    key: "T"
    value {
      type: DT_INT64
    }
  }
  attr {
    key: "_class"
    value {
      list {
        s: "loc:@global_step"
      }
    }
  }
  attr {
    key: "_output_shapes"
    value {
      list {
        shape {
        }
        shape {
        }
      }
    }
  }
}
node {
  name: "global_step/cond/Switch_1"
  op: "Switch"
  input: "global_step/Initializer/zeros"
  input: "global_step/cond/pred_id"
  attr {
    key: "T"
    value {
      type: DT_INT64
    }
  }
  attr {
    key: "_class"
    value {
      list {
        s: "loc:@global_step"
      }
    }
  }
  attr {
    key: "_output_shapes"
    value {
      list {
        shape {
        }
        shape {
        }
      }
    }
  }
}
node {
  name: "global_step/cond/Merge"
  op: "Merge"
  input: "global_step/cond/Switch_1"
  input: "global_step/cond/read"
  attr {
    key: "N"
    value {
      i: 2
    }
  }
  attr {
    key: "T"
    value {
      type: DT_INT64
    }
  }
  attr {
    key: "_output_shapes"
    value {
      list {
        shape {
        }
        shape {
        }
      }
    }
  }
}
node {
  name: "global_step/add/y"
  op: "Const"
  attr {
    key: "_output_shapes"
    value {
      list {
        shape {
        }
      }
    }
  }
  attr {
    key: "dtype"
    value {
      type: DT_INT64
    }
  }
  attr {
    key: "value"
    value {
      tensor {
        dtype: DT_INT64
        tensor_shape {
        }
        int64_val: 0
      }
    }
  }
}
node {
  name: "global_step/add"
  op: "Add"
  input: "global_step/cond/Merge"
  input: "global_step/add/y"
  attr {
    key: "T"
    value {
      type: DT_INT64
    }
  }
  attr {
    key: "_output_shapes"
    value {
      list {
        shape {
        }
      }
    }
  }
}
node {
  name: "tensors/component_0"
  op: "Const"
  device: "/device:CPU:0"
  attr {
    key: "_output_shapes"
    value {
      list {
        shape {
          dim {
            size: 1047
          }
        }
      }
    }
  }
  attr {
    key: "dtype"
    value {
      type: DT_FLOAT
    }
  }
  attr {
    key: "value"
    value {
      tensor {
        dtype: DT_FLOAT
        tensor_shape {
          dim {
            size: 1047
          }
        }
        tensor_content: "\000\000\350A\332\254j?\000\000\000@\000\000\360A\000\000\310A\000\000@B\000\000|B\000\000\034B\000\000TB\000\000\216B\000\000<B\000\000\220A\000\000\300A\000\000\320A\000\000\240B\000\000\000\000\000\000\300A\000\000HB\000\000\000B\000\000\020B\000\000\024B\000\000<B\000\000\320A\000\000(B\000\000\350A\000\000\310A\000\000\310A\000\000\230A\000\000\014B\000\000\340A\000\0004B\000\000 B\000\000\360A\000\000hB\000\000(B\000\0004B\000\000\260A\000\000\000\000\000\000$B\000\000@B\000\000\000\000\000\0000B\000\000lB\000\000pB\000\000$B\000\0004B\000\000\000\000\000\000(B\000\000TB\000\000\020B\000\000hB\000\000\004B\000\000\340A\000\000\210A\000\0000A\000\000`A\000\000\020B\000\000\020B\000\000DB\000\000\000\000\000\000\020B\000\000\230B\000\0008B\000\000<B\000\000\330A\000\000\004B\000\000\020B\000\000\360A\000\0004B\000\000\000\000\000\000\000\000\000\000\330A\000\000\320A\000\000\260A\000\000\000\000\000\000<B\000\000\034B\000\000\024B\000\000\200B\000\000\\B\000\000\000\000\000\000\214B\000\000\020B\000\000\200B\000\000\034B\000\000\030B\000\000LB\000\000\330A\000\000\004B\000\000\370A\000\000\330A\000\000\370A\000\000\210A\000\000TB\000\000\200@\000\000XB\000\000HB\000\000\330A\000\000@B\000\000@B\000\000DB\000\000\034B\000\000\270A\000\000\030B\000\000XB\000\000\020B\000\000\000\000\000\000\000\000\000\000\000\000\000\000\020B\000\000\360A\000\000\300A\000\000\340A\000\000\270A\000\000\230A\000\000\200B\000\000pB\000\000\360A\000\000\000\000\000\000HB\000\000,B\000\000\000\000\000\000\260A\000\000pB\000\000@B\000\000\000\000\000\000\024B\000\000\014B\000\000<B\000\000\014B\000\000\260A\000\0004B\000\000\300A\000\000DB\000\000\000\000\000\000\216B\000\000TB\000\000\230A\000\000\030B\000\000hB\000\000\270A\000\0004B\000\0008B\000\000\310A\000\000\310A\000\000@B\000\000DB\000\000\000\000\000\0004B\000\000\014B\000\000 B\000\000\330A\000\000\000\000\000\000\300A\000\000\\B\000\000PB\000\000(B\000\000\000\000\000\000\\B\000\000\200A\000\0000B\000\000LB\000\000(B\000\000\014B\000\000\014B\000\000\030B\000\000\000\000\000\000\014B\000\000\030B\000\000HB\000\000DB\000\0008B\000\000HB\000\000\002B\000\000hB\000\000$B\000\000\000\000\000\000(B\000\0004B\000\000\000\000\000\000\034B\000\000DB\000\000\360A\000\000\014B\000\000\000\000\000\000(B\000\000\\B\000\000\200A\000\000LB\000\000\350A\000\000\250A\000\000\360A\000\000hB\000\000pA\000\000\360A\000\000\200A\000\000\000\000\000\000\230A\000\000\220A\000\000\300A\000\0008B\000\000XB\000\000\020B\000\000\340A\000\000\000\000\000\000\202B\000\0000B\000\000\004B\000\000\024B\000\000\360A\000\000\\B\000\000<B\000\000\024B\000\000\370A\000\000\270A\000\000hB\000\000\230A\000\000\200B\000\000\034B\000\000\000\000\000\000\260A\000\000\202B\000\000\344A\000\000\000\000\000\0006B\000\000\270A\000\000\350A\000\000\260A\000\000\220A\000\000\210A\000\000\360A\000\000PB\000\000<B\000\000`B\000\000\030B\000\000\000\000\000\000\260A\000\000\000\000\000\000,B\000\000\370A\000\0004B\000\000\000\000\000\000\004B\000\0008B\000\000\020B\000\000\004B\000\000\\B\000\000XB\000\000\004B\000\000PA\000\000\220A\000\000\250A\000\000tB\000\000@B\000\000\000\000\000\000\300A\000\000\000\000\000\000\014B\000\000\360A\000\000\010B\000\000 B\000\000\014B\000\000HB\000\000\034B\000\000`B\000\000\340A\000\000`B\000\000`B\000\000\300A\000\000\000\000\000\000\220A\000\000\300A\000\000\270A\000\000\300@\000\0004B\000\000 B\000\000dB\000\000\000\000\000\000\000B\000\000xB\000\000XB\000\000,B\000\000PB\000\000\000\000\000\000xB\000\000\206B\000\000|B\000\000tB\000\000@B\000\000\220A\000\000PB\000\000\034B\000\000@B\000\000\000\000\000\000DB\000\000\210A\000\000\034B\000\000\000\000\000\000\370A\000\000 B\000\000tB\000\000<B\000\000\014B\000\000\200B\000\000pB\000\000pB\000\000XB\000\000\250A\000\000\\B\000\000\370A\000\000dB\000\0004B\000\000HB\000\000\330A\000\000HB\000\000\250A\000\000LB\000\000\250A\000\000\000\000\000\000\370A\000\000\000\000\000\000xB\000\000\020B\000\000\360A\000\000\340A\000\000\360A\000\000\220A\000\000\310A\000\000\010B\000\000\020B\000\000dB\000\000\220A\000\000\270A\000\000\020B\000\000\340A\000\000LB\000\000\000B\000\000\230A\000\000\340A\000\000\200?\000\000\200@\000\000@A\000\000\020B\000\000\010B\000\000\230A\000\000\270A\000\000\320A\000\000(B\000\000\330A\000\000\300A\000\000pA\000\000pB\000\000 B\000\000\240A\000\000\310A\000\000\020B\000\000\310A\000\000(B\000\000(B&SU?\000\000\320A\000\000\260A\000\000\014B\000\000\000\000\000\000\230A\000\0000B\000\000XB\000\000PB\000\000\024B\000\000\350A\000\000\310A\000\0004B\000\000\350A\000\000\340A\000\000\350A\000\000\340A\000\000\300A\000\000\000A\000\000\370A\000\000\370A\000\000\260A\000\000\360A\000\000\000\000\000\000\250A\000\000\000\000\000\000\000A\000\000\220A\000\000@B\000\000\340A\000\000\000B\000\000\210A\000\000\350A\000\000\300A\000\000\310A\000\000\220A\000\000\220A\000\000\010B\000\000XB\000\000\000A\000\000(B\000\000\010B\000\000\330A\000\000\360A\000\000\270A\000\000\250A\000\000\220A\000\000 B\000\000\350A\000\000\220A\000\000\020B\000\000\000\000\000\000\030B\000\000\014B\000\000\030B\000\000\010B\000\000\010B\000\000\200A\000\000\320A\000\000<B\000\000\250A\000\000\250A\000\000\300A\000\000\300A\000\000\010B\000\000\360A\000\000PB\000\000\360A\332\254*?\000\000\300A\000\0000B\000\000\300@\000\000\340A\000\000xB\000\000\360A\000\000\340@\000\000,B\000\0004B\000\000\300A\000\000\300A\000\000DB\000\000@B\000\000\\B\000\000\300A\000\000\000B\000\000\250A\000\000\220A\000\000\240A\000\000\270A\000\000\020B\000\000XB\000\000HB\000\0000B\000\000\350A\000\000\250A\000\000(B\000\000|B\000\000pB\000\000\004B\000\000\210A\000\000(B\000\000\300A\000\000<B\000\000\300A\000\000\260A\000\000\000B\000\000\270A\000\000\010B\000\000\300A\000\000\260A\000\000\000\000\000\000\014B\000\0004B\000\000dB\000\000\000\000\000\000\370A\000\000\320A\000\000\360A\000\000\000\000\000\000\200?\000\000@@\000\000\310A\000\000\260A\000\000\210A\000\000\000\000\000\000\010B\000\000\020B\000\000\300A\000\000tB\000\000HB\000\000(B\000\000dB\000\000\000\000\000\000\200?\000\000\370A\000\000\300A\000\000\000\000\000\000\360A\000\000 B\000\000\000B\000\000\360A\000\0008B\000\000PA\000\000$B\000\000\230A\000\000\034B\000\000@B\000\000\214B\000\000\330A\000\000XB\000\000\034B\000\000\200A\000\000xB\000\000\002B\000\000`A\000\000\000@\000\000@@\000\000\022B\000\000\320A\000\000\230A\000\000\340A\000\000\240A\000\000\350A\000\000\034B\000\000\260A\000\000\000\000\000\000\270A\000\000\350A\000\000\340A\000\000\000\000\000\000HB\000\000\230A\000\000\000\000\000\000$B\000\000\250A\000\000\230A\000\000,B\000\000\000B\000\000\010B\000\000\360A\000\000\330A\000\000\000@\000\000\000A\000\000\004B\000\000\020B\000\000\010B\000\000\360A\000\000\340A\000\000\270A&SU?\000\000@@\000\000\300A\000\000HB\000\000\230A\000\000\250A\000\000\320A\000\000\310A\000\000\330A\000\000\310A\000\000\220A\000\000\240A\000\000\360A\000\000lB\000\000\360A\000\000\014B\000\000 B\000\000\310A\000\000$B\000\000\310A\000\000\224A\000\000`A\000\000HB\000\000\270A\000\000\340A\000\000\330A\000\000\350A\000\000\330A\000\000 B\000\000\370A\000\000\360A\000\000\270A\000\000\370A\000\000\000\000\000\000@A\000\000 B\000\000\002B\000\000\330A\000\000\350A\000\000\000@\000\000\200@\000\000\350A\332\254j?\000\000\240@\000\000\020B\000\000\004B\000\000\204B\000\000\000\000\000\000\370A\000\000\000\000\000\000\320A\000\000\300A\000\000(B\000\000PA\000\000\200A\000\000\014B\000\000\200A\000\000\310A\000\000\240A\000\000\220A\000\000\360A\000\000\320A\000\000 B&SU?\000\000\220A\000\000\320A\000\000\320A\000\000\240A\000\000\300A\000\000\310A\000\000\014B\000\000\220A\000\000\000B\000\000\230A\000\000\200@\000\000\300@\000\000\000@\000\000\210A\000\000\030B\000\000\020A\000\0000A\000\000\034B\000\000\330A\000\000\320A\000\000\034B\000\000\240A\000\000\320A\000\000\310A\000\000\220A\000\000\300A\000\000\014B\000\000\240@\000\000\020A\000\000@@\000\000PA\000\000\240@\000\000 B\000\000\270A\000\000\030B\000\0004B\000\000\250A\000\000\270A\000\000\210A\000\000\360A\000\000\270A\000\000PA\000\000\240A\000\000\000B\000\000\004B\000\000@?\000\000@?\000\000\240@\000\000\300A\000\000\220A\000\000 B\000\000\320A\000\000\240A\000\000\220A\000\0004B\000\000\330A\000\000\260A\000\000\230A\000\000\320A\000\000\260A\000\000\000\000\000\000\240A\000\000\000B\000\000\250A\000\000\220A\000\000\320A\000\000\300@\000\000\020A\000\000\000\000\000\000\000\000\000\000\000\000\000\000 B\000\000\000B\000\000\250A\000\000\260A\000\000\240A\000\000\350A\000\000\260A\000\000\260A\000\000\014B\000\000\224A\000\000\250A\000\000\230A\000\000\220A\000\000\250A\000\000\360A\000\000\220A\000\000\030B\000\000\210A\000\000\210A\000\000\250A\000\000\250A\000\000\250A\000\000\000\000\000\000\000\000\000\000\340A\000\000\300A\000\000\200A\000\000\024B\000\000\340A\000\000\300A\000\000\250A\000\000\000B\000\000\350A\000\000\320A\000\000\220A\000\000\240A\000\000\220A\000\000\300A\000\000\020B\000\000\300A\000\000\370A\000\000\370A\000\000\260A\000\000\360A\000\000\215B\000\000,B\000\000\014B\000\000\330A\000\000\230A\000\000\360A\000\000\020A\000\000@@\000\000\020B\000\000lB\000\000\230A\000\000\210A\000\0000B\000\000\210A\000\000\264A\000\0004B\000\000\260A\000\000\230A\000\000\360A\000\000\350AL\246\252>\000\000\010B\000\000\340A\000\000\330A\000\000\310A\000\000\300A\000\000\260A\000\000\250A\000\000\210A\000\000\000\000\000\000\000\000\000\000\022B\000\000\020B\000\000\360A\000\000\200A\000\000\200?h\263*>\000\000\320A\000\000\004B\000\000\310A\000\000\000\000\000\000\000\000\000\000\260A\000\000\020B\000\000\230A\000\000\210A\000\000(B\000\000,B\000\000\000\000\000\000\000B\000\000\230A\000\000\360A\000\000\300A\000\000\270A\000\000\004B\000\000\202B\000\000\300A\000\000\270A\000\000\260A\000\000\220A\000\000\200A\000\0004B\000\000\000\000\000\000\034B\000\000\210A\000\000pA\000\000<B\000\000\240@\000\000\000\000\000\000\"B\000\000\"B\000\000\000\000\000\000\220A\000\000\000\000\000\000\000\000\000\000\000\000\000\000\320A\000\000\000\000\000\000\000\000\000\000\250A\000\000\020A\000\000\000\000\000\000\220A\000\000\200A\000\000@B\000\000\000\000\000\000\000\000\000\000\310A\000\000\000\000\000\000\000\000\000\000\260A\000\000\200A\000\000\000\000\000\000\020A\000\000\004B\000\000$B\000\000\370A\000\000\030B\000\000\020A\000\000\200?\000\0000A\000\000 A\000\000\200A\000\000`A\000\000 B\000\000,B\000\000LB\000\000\000B\000\000\000\000\000\000\240A\000\000\024B\000\000\340A\000\000\230A\000\000\300A\000\000\210A\000\000\000\000\000\000\000\000\000\000\340A\000\000\300A\000\000\240A\000\000\274A\000\000$B\000\000\320A\000\000\250A\000\0004B\000\000\000\000\000\000\310A\000\000\000\000\000\0000A\000\000\000\000\000\000\330A\000\000\000\000\000\000\220A\000\000\320A\000\000\270A\000\000\260A\000\000\340A\000\000\340A\000\000\000\000\000\000\000@\000\000\260A\000\000,B\000\000\340A\000\000\330A\000\000\000\000\000\000\000\000\000\000(B\000\000\000\000\000\000\360A\000\000\000\000\000\000\330A\000\000\310A\000\000\000\000\000\000\350A\000\000\250A\000\000\000\000\000\000\240A\000\000@B\000\000\210A\000\000\000\000\000\000\000\000\000\000\010B\000\000\320A\000\000\260A\000\000\004B\000\000\370A\000\000\350A\000\000\200@\000\000\200?\000\000DB\000\000\004B\000\000\230A\000\000\330A\000\000\000\000\000\000\000\000\000\000\000\000\000\000\000\000\000\000\270A\000\000\000B\000\000\330A\000\000\240A\000\000\250A\000\000\000B\000\000\210A\000\000\250A\000\000\360A\000\000\250A\000\000\004B\000\000\260A\000\000\200@\000\000\034B\000\000\000\000\000\000\224A\000\000\000\000\000\000\000\000\000\000\000\000\000\000\000\000\000\000\nB\000\0000B\000\000\000\000\000\000\000\000\000\000\000\000\000\000\000\000\000\000\000\000\000\000\000\000\000\000\260A\000\000\320A\000\000\200@\000\000\350A\000\000\320A\000\000\200?\000\000\220A\000\000\020B\000\000\000\000\000\000\310A\000\000\000\000\000\000\024B\000\000\000\000\000\000\000\000\000\000\000\000\000\000\260A\000\000\000\000\000\000\320A\000\000\350A\000\000\350A\000\000\260A\000\000\260A\000\000\000\000\000\000\000\000\000\000\000\000\000\000\000\000\000\000\000\000\000\000\000B\000\000\nB\000\000\000\000\000\000\000\000\000\000\020B\000\000\034B\000\000\300A\000\000\310A\000\0004B\000\000\020B\000\000\360A\000\000\240A\000\000\000\000\000\000\340A\000\000\000\000\000\000\360A\000\000\320A\000\000\000\000\000\000\244A\000\000\330A\000\000LB\000\000\270A\000\000\000B\000\000\000\000\000\000\000\000\000\000\000\000\000\000\300A\000\000\260A\000\000\000\000\000\000\000\000\000\000\000\000\000\000\350A\000\000\000\000\000\000\364A\000\000\000\000\000\000\000\000\000\000\014B\000\000\004B\000\000\000\000\000\000\000\000\000\000\000\000\000\000\000\000\000\000\000\000\000\000\000\000\000\000\000\000\000\000\000\000\000\000\000\000\000\000\000\000\000\000pA\000\000\014B\000\000\000\000\000\000\300A\000\000\230A\000\000\000\000\000\000\000\000\000\000\000\000\000\000^B\000\000\000\000\000\000\250A\000\000\000\000\000\000\300A\000\000\250A\000\000\340A\000\000\000\000\000\000\000\000\000\000\310A\000\000\300@\000\000\330A\000\000\000\000\000\000\000\000\000\000\000\000\000\000\000\000\000\000\010B\000\000\000\000\000\000\000\000\000\000\000\000\000\000\000\000\000\000\000\000\000\000\000\000\000\000\000\000\000\000\000\000\000\000\300A\000\000\000\000\000\000\000\000\000\000\000\000\000\000\000\000\000\000\220A\000\000\260A"
      }
    }
  }
}
node {
  name: "tensors/component_1"
  op: "Const"
  device: "/device:CPU:0"
  attr {
    key: "_output_shapes"
    value {
      list {
        shape {
          dim {
            size: 1047
          }
        }
      }
    }
  }
  attr {
    key: "dtype"
    value {
      type: DT_FLOAT
    }
  }
  attr {
    key: "value"
    value {
      tensor {
        dtype: DT_FLOAT
        tensor_shape {
          dim {
            size: 1047
          }
        }
        tensor_content: "fVSC\315\214\027C\315\214\027C\315\214\027C\315\214\027Cff\324A\246\352\233B\000\000\000\000\263\352MBM\004FBf\206cCf\206cC\232\231\212B3\263\235B\000\000\360Aff\317AS\205wCS\205wCZ\225\230B\300{\226B\2007RB\2007RB\000\000\360Af\206cCz\307]C\000\000\320A\215(\266B\215(\266B \242\007Cff\324A\000\000\016B\000\000\370A\340\335$Cff\324Aff\324A\0000\203C\000\000\\Bff\324A\000\000\364A\263\373IBff\036B3\304\335A\263\352MBZ\225\230B\000\200\006Cff\324A\000\000\370A\315L\322A\000\221\333A\022\025\000D\022\025\000D\000\000\240@ff<Bff<B\000\000\360B\000\000\360B\000\000\360B\000\000\360B\000\000\320A3\304\335A3\263\235B3\263\235B3\263tB3\263tBffTBffTB\0000\203C\000\000\255B\232\231\355A\000\000\\B\000\000\000\000z\307\010Cz\307\010C\315\214\027C\000\000PB3\263\314A\rQ\246B\rQ\246B\rQ\246B\232\231\315Aff\324A\000\000\216B\000\000\216Bff\324A\r\221\216B\r\221\216Bff\324A\000\000\364A\315\214\027C\000\000PB\000\000PB\000\000dB\000\000dBs\267\243Bs\267\243Bs\267\243B\232\331\324BS\205wC\232\331\324Bff\036B\200\267cB\232\231\355A\rQ\246Bf\206cC\215\210\234B\000o\375Az\307]Cfw\375A@\304\335B\232\031\323A\000\000\336A\000\200\203C\000\200\203C\000\200\203C\000\200\203C\000\200\203C\000\200\203C\200\267cBff\324Af\246\005C3\304\335Af\246\005C\000\000FBff\236Bff\236B\000\000\000\000ffTBffTB\000\000\032B\000\200SC\232\231mB\232\231mBff\236BZ5\262BZ5\262B\347\235\nB\000\000\344A\000\000\360Afv\031Cfv\031C\346n}B\346n}Bff\236BM\304]BM\304]BZu\231BZu\231B\232\231)B3\363\246B3\363\246B\000\000\000\000Zu\231B\000\000\360A\rQ\246B\000\000\273B\000\000\273B\000\000*B3sOB\000\000HB\263\352gB\263\352gB\246\352\233B\000\000PB\000\000PBff\324A\000\000\264B\000\221\365A\000\000\264B\000\000\240B3\263\345A\000\000\000\000\000\000\320A\000\000\320A\000\200SC\232\231\355A3sOB3sOB\2007RB\2007RBff\324AfVSC\000o\317A\232\331\324B\022\025\000D3\304\335Aff\324A3\304\335A\232\231\035B\232\231\035B\000\000\360A\246\352\233B\000\0006BS\205\022CfVSC\000\000\320A\000\000\255B\232\231\355AffTBffTBM\004FB\300{\226B3sOB\315L\322AsW\244BsW\244Bff\324A\000\000\264B\000\000\264B\000\000\264B\000\000gB\000\000\364A\232\231)B\232\231\355A\315\214\342B\315\214\342B\315\214\342B3D\322A\000\000\320A\315\314\331B\000\357\315A\263\352wB\263\352wB3\304\335A\000\000\000\000\000\000\344A\000\000\273B33\205B33\205B\315\314\331B\315\314\331B\000\000\273B\000\000\364A\000\000PB\rQ\246B\000\000\000\000ff\036B \242\007Cf\206cCfVSC\263\373IBff\324A\000\000HB3\304\335Aff\236B\000\200 B\000\000\255B\232\231mB\232\231mBff\324A\0000\203C\0000\203C\0000\203C\0000\203C\0000\203C\000\000\364A\232\231\212B\000\000\320A\000\000gB\000\000\370Aff\324Afv\031C\315L\322A\232\231_B\232\231_B\000\000\016B\000\000\016Bff\324A\000\221\365A\000\000pB\000\000\320A\000\000pB\215\210\244B\215\210\244B\000\200\006C\000\200\006C\000\200\006CS\205\022CS\205\022C\000\000\364Aff\324AM\304]BM\304]B\215\210\234B3\304\335A\000\000\240Bz\307]Cz\307]C\200H\001B\000o\317A\315L\237B\315L\237B\315L\237B\000\000PB\000\000PB@\304\335B@\304\335B@\304\335Bff\236B\315L\344A3\304\335A\000\000\006BM\025\010B\022\025\000D\000\200\226B\000\200\226Bff\324A3\223\232B3\223\232B \242\007C\340\335$C\340\335$C\340\335$C\000\200SC\000\200SC\000\200SCff\324AM\204uBM\204uB\000\000\014B\000\200\006C\000\000\016Bff\324A \242\007C\000\000\300A\000\000\300A\000\000PA\000\0008A\000\000(A\000\000\320A\000\000\320A\000\000PA\000\0008A\000\000(A\000\000PA\000\000(AffHA\000\000\320A\000\000\320A\000\000\320A\000\000\034B\000\000\034B\000\000\034B\000\000\034B\000\000PA\000\000PA\000\000PA\000\000PA\000\000PA\000\000PA\000\000PA\000\000\034B\000\000\034B\000\000\034B\000\000\320A\000\000\320A\000\000PA\000\000PA\000\000PA\000\000PA\000\000\350A\000\000\350A\000\000\350A\000\000\250A\000\000\000\000\000\000PA\000\000\320A\000\000\320A\000\000XA\000\000\320A\000\000\320A\000\000\360A\000\000\360A\000\000\320A\000\000\320A\000\000(A\000\000PA\000\000(A\000\000\322A\000\000\322A\000\000\322A\000\000(A\000\000PA\000\000\250A\000\0008A\000\000\000\000\000\000\023B\000\000\223B\000\000\023B\000\000PA\000\000PA\000\000\223B3\304\335A3\304\335A\000\000\374A\000\000\223B\000\000\270A\000\000\270A\000\000\320A\000\000\002B\000\000\002B\000\000\002B\231\273]A\231\273]A\000\000PA\000\000PA\000\000PA\000\000\320A\000\000\320A\000\000(A\000\000PA\000\000\000\000\000\000PA\000\000\320A\000\000\250A\000\000\250A\000\000PA\000\000\320A\000\000(A\000\000(A\000\0008A\000\0008A\000\000XA\000\000PA\000\000PA\000\000PA\000\000PA\000\000PA\000\000hA\000\000hA\000\000PA\000\000\004B\000\000\004B\000\000(A\000\000(A\000\000\322A\000\000\322A\000\000\322A\000\000\202B\000\000\202B\000\000\202B\000\000\202B\000\000\200A\000\000\223B\000\000\223B\000\000\223B\000\000PA\000\000\270A\000\0008A\000\000PA\000\000\270A\000\000PA\000\000\320A\000\000\320A\000\000\223B\000\000PA\000\000\320A\000\000\320AffDA\000\000(A\000\000\330A\000\000\330A\000\000pA\000\000\374A\000\000\374A\000\000(A\316\252\\A\000\000\320A\000\000\320A\000\000\250A\232\231EA\232\231EA\000\000XA\232\231EA\000\000\000\000\000\000(A\000\000\320A\000\000\320A2U+A\032Q&B\032Q&B\032Q&B\032Q&B\000\000@A\000\000\004B\000\000(A\000\000NA\000\000(A\232\231EA\000\000\320A\000\000\320A\000\000(A\231\273pAM\004\024BM\004\024BM\004\024BgDyA\000\000PA\000\000\200A\000\000XA\000\000PA\000\000\320A\000\000\234A\000\000\234A\000\000(A\000\000PA\000\000PA\000\000(A\000\000PA\000\000`A\000\000\320A\000\000(A\000\000\033A\000\221\360A\000\221\360A\000\000\320A\000\000\320A\000\000\320A\000\000PA\000\000\023B\000\000XA\315\314]A\000\000(A\000\000PA\000\000(A\315\314]A\000\000(A\231\273]A\000\000(A\000\000\000\000\000\000\320A\000\000(A\315\314pA\000\000PA\000\000\250A\000\000\320A\000\000\250A\000\000PA\000\000PA\315\314KAf\210pA\000\000\320A\000\000\320A\000\000\320A\000\000(A\000\000\250A\000\000\250A\000\000PA\231\273pA\000\000\226A\000\000\226A\000\000\226A\000\000(A\000\000(A\000\000(A\000\000PA\000\000PA\000\000\320A\000\000\320A\000\000PA\000\000\023B\000\000PA\000\000XA\232\231EA\000\000(A\000\000PA\000\000PA\231\273pA\000\000(A\000\000PA\000\000\202B\000\000(A\000\000PAffJA\000\000(A\000\000\250A\000\000\250A\000\000PA\000\000\250A\000\000\250A\000\000(A\000\000\250A\000\000\000\000\000\000|A\000\000|A\000\000PA\000\000\320A\000\000\320A\000\000\270A\000\000\270A\000\000\270A\000\000\336A\000\000\336A\000\000\336A\000\000\336A\000\000(A\000\000NA\000\000PA\000\000PA\000\000XA\000\000PA\232\231\361@\000\000\242A\000\000\242A\000\000\242A\315\314\364@\315\314\364@\232\231\375@\233U\347@\000\000\350@\315\314\000A\232\231\027A\232\231\025A\232\231\025A\315L\226Aff\374@\232\231\375@\232\231\341@\232\231\341@\315\314\000A\315\314\004A33\264A\233U\373@33\372A33\372A33\372A\232\231\375@\315\314\370@33\372A33\372A33\372A2w\371@\315\314\370@33\372A\233U\373@e\252\374@ff\216Aff\216A\315\314\370@\232\231\341@\232\031\373A\232\031\373A\232\031\373A\232\031\373A\232\031\373A\232\031\373A2w\371@\232\031\373A33\347@33\347@\232\231\341@2UgA33\347@\233U\373@\233U\347@33\347@\232\231}A\232\231}A\000\021\232A\000\021\232A\000\021\232A\000\021\232A\315\314\000A33\347@e\252\374@\233U\347@gDgAgDgAh\"\374@\315\314\000A\315\314\000A\315\314\370@\232\231\025A\233U\347@ff\200@\263\373aB\315\314\370@\000\000\370@e\252\374@\314\356sA\314\356sA33\347@\314\356sA\000\000\370@\000\000xA\000\000xA\315\314\200A33\367@\233U\373@2w\341@\000\000\350@2w\371@\315\314\000A\313\020\351@\376C\372@\000\000\330@h\"\374@\232\231\nA\232\231\nA\232\231\nA\232\231\nA\232\231\nA\232\231\nA\000\000\370@\000\000\370@\315\314\000A2UgA2UgA2w\371@\233U\373@\000\000\370@\000\000\370@\000\000\350@\315\314\000A2w\367@\263\373aB\315\314\000AgDgAgDgA\232\231\341@\315\314\000A\000\000\350@\230\335\357@\230\335\357@2w\367@\000\000\370@\000\000\370@h\"\364@\000\000\370@\315\314\000Ae\252\374@e\252\374@e\252\374@\315\314\000Aff~Aff~Aff~A\000\000\350@f\210\002A\315\314\200A\315\314\200A\232\231\nA33\347@\315\314\000AgD(A\231\273\"Aff\336@\000\000\370@fffAfffAfffAe\252\374@e\252\374@33\301A\315\314\000A33\301A\315\314\000A\315\314\200A\315\314\200A33\213A33\213A\000\000\030A\000\000\030A\232\231\244A\232\231\244A\232\231\244A\232\231\244Ae\252\374@e\252\374@e\252\374@\000\000\350@\000\000\350@h\"\374@e\252\374@\232\231\nAe\252\374@\233U\347@\000\000\370@\315\314\000A\232\231GA\000\000\370@\315\314\000Ae\252\374@\000\000\370@\232\231\361@ff^Aff^A\315\314\370@\315\314\370@33\337@33\347@\233U\347@\233U\347@\233U\347@\000\000\350@\232\231GA33\347@\232\231qA\000\000\370@\232\231\341@2w\371@\000\000\370@\000\000\370@ff\336@h\"\374@\000\000\370@\263\373aB\000\200\tB\000\200\tB\315\314\000A\000\200\tB\000\200\tB\000\200\tB\000\000\370@\000\000\350@\002\274\367@\000\000hAe\252\374@\315\314\000A2w\367@\000\000\370@33\244A33\244A33\373@33\244A\232\231\341@\232\231;B\232\231;B\232\231;B\232\231;B\232\231;B\232\231;B\232\231;B\232\231;B\315\314\000A\315\314\005A\315\314\000Af\210\035A\232\231\375@\232\231\375@\315\314\370@\232\231\rA2w\367@\315\273\237A\315\273\237A\232\231}A\232\231}A\000\000\030A\233U\347@\231\273aA\233U\373@\233U\373@\231\273aA\232\231\361@\000\000\350@2w\333@\315L\226A\000\000\370@33\337@\263\373aB\000\000\330@\232\231\375@\232\231\375@ff\017Ae\252\374@\315\314\370@\000\000\370@\232\231DA\232\231DAff\316@33\264A\232\231\375@\000\000\370@\315\314\000A\315\314\364@ff\374@\233U\347@e\252\374@\232\231\375@\232\231\375@e\252\374@e\252\374@2w\371@\232\231\341@\233U\373@\233U\373@\002\274\341@\000\000\370@\315\314\001A\230\335\317@\315\314\370@2w\371@\232w\nA\315\314\370@\233U\373@\377!2A\377!2A\000\000\000\000\315\314\370@\000\000\000\000\377!2A\232\231\273A\232\231\273A\232\231\273A\232\231\273Ae\252\374@\233U\373@\233U\373@33\035A33\035A\232\231\375@\000\000\344@\314\356\006Ae\252\374@2w\371@\233U\373@e\252\360@\316\252VA\316\252VA\233U\347@\233U\347@\000\000\370@\000\000\350@\000\000\370@\000\000\370@\316\210\372@\315\314\000A\000\000\370@gDgAgDgA\000\000\370@\000\000\370@\232\231\367@\232\231\nA\232\231\nA33\260A33\260A33\260A\314\356BA\233U\373@\314\356BAe\252\374@\233U\347@33\347@ff\031Ae\252\374@\263\373aB\263\373aB\000\000\350@\000\000\370@\263\373aB\231\273\027A\315\314\370@\315\314\370@33\347@\315\273\313A\315\273\313A\315\273\313A\315\273\313A\315\273\313A\232\231\375@\000\000\316@\000\000xA\000\000xA\000\000\000\00033\301A\000\000\030A\315\314\370@\000\000\370@\315\314xA\315\314xA\232\231\375@h\"\374@\263\373aB\232\231\361@\315\314\200A\315\314\200Ah\"\374@\000\000\350@\232\231\nA\002\274\341@\233U\373@\316\210\362@e\252\374@\232\231\361@\000\000\370@\316\210\344@\000\000\344@h\"\374@\000\000\370@\315\314\000A\232\231\375@\233U\347@\000\000\370@\232\231\367@\233U\347@e\252\374@e\252\374@33\347@e\252\374@\000\000\370@\000\000\370@\000\000\272A\000\000\272A\000\000\272A33\371@\000\000xAh\"\374@\232w\000A\000\000\370@\000\000\370@\315\314\200A\315\314\200A\000\000\370@\315\314\000A\315\314\000A\315\314\000A\000\000\370@\315\314\370@\315\314\000Ae\252\374@e\252\374@e\252\374@e\252\374@h\"\374@\315\314\364@\232\231GA\232\231GA\315\314\000A33\301A33\301A2U\007A\315\314\000A\000\000\370@\315\314\370@\314\356sA\314\356sA\314\356sA\233U\347@\315\314\000A2w\367@\000\000\370@\315\314\000A\000\000xA\000\000xA\000\000xA\000\000\370@e\252\374@"
      }
    }
  }
}
node {
  name: "tensors/component_2"
  op: "Const"
  device: "/device:CPU:0"
  attr {
    key: "_output_shapes"
    value {
      list {
        shape {
          dim {
            size: 1047
          }
        }
      }
    }
  }
  attr {
    key: "dtype"
    value {
      type: DT_INT32
    }
  }
  attr {
    key: "value"
    value {
      tensor {
        dtype: DT_INT32
        tensor_shape {
          dim {
            size: 1047
          }
        }
        tensor_content: "\000\000\000\000\002\000\000\000\002\000\000\000\002\000\000\000\002\000\000\000\000\000\000\000\000\000\000\000\000\000\000\000\000\000\000\000\000\000\000\000\000\000\000\000\000\000\000\000\000\000\000\000\000\000\000\000\000\000\000\000\000\000\000\000\001\000\000\000\001\000\000\000\000\000\000\000\000\000\000\000\001\000\000\000\001\000\000\000\000\000\000\000\000\000\000\000\000\000\000\000\000\000\000\000\000\000\000\000\000\000\000\000\000\000\000\000\000\000\000\000\000\000\000\000\000\000\000\000\000\000\000\000\000\000\000\000\000\000\000\000\000\000\000\000\001\000\000\000\000\000\000\000\000\000\000\000\000\000\000\000\000\000\000\000\000\000\000\000\000\000\000\000\000\000\000\000\000\000\000\000\000\000\000\000\000\000\000\000\000\000\000\000\000\000\000\000\001\000\000\000\001\000\000\000\000\000\000\000\000\000\000\000\000\000\000\000\002\000\000\000\002\000\000\000\002\000\000\000\002\000\000\000\000\000\000\000\000\000\000\000\000\000\000\000\000\000\000\000\000\000\000\000\000\000\000\000\000\000\000\000\000\000\000\000\000\000\000\000\000\000\000\000\000\000\000\000\001\000\000\000\000\000\000\000\000\000\000\000\000\000\000\000\000\000\000\000\000\000\000\000\000\000\000\000\001\000\000\000\001\000\000\000\002\000\000\000\000\000\000\000\000\000\000\000\001\000\000\000\002\000\000\000\001\000\000\000\000\000\000\000\000\000\000\000\000\000\000\000\000\000\000\000\000\000\000\000\000\000\000\000\002\000\000\000\000\000\000\000\000\000\000\000\001\000\000\000\002\000\000\000\001\000\000\000\000\000\000\000\001\000\000\000\000\000\000\000\000\000\000\000\000\000\000\000\000\000\000\000\001\000\000\000\000\000\000\000\000\000\000\000\000\000\000\000\000\000\000\000\000\000\000\000\000\000\000\000\000\000\000\000\000\000\000\000\002\000\000\000\002\000\000\000\002\000\000\000\002\000\000\000\004\000\000\000\004\000\000\000\000\000\000\000\000\000\000\000\000\000\000\000\000\000\000\000\000\000\000\000\002\000\000\000\001\000\000\000\001\000\000\000\000\000\000\000\000\000\000\000\000\000\000\000\000\000\000\000\000\000\000\000\001\000\000\000\001\000\000\000\000\000\000\000\000\000\000\000\000\000\000\000\000\000\000\000\000\000\000\000\000\000\000\000\001\000\000\000\001\000\000\000\001\000\000\000\001\000\000\000\000\000\000\000\000\000\000\000\000\000\000\000\000\000\000\000\000\000\000\000\000\000\000\000\000\000\000\000\000\000\000\000\000\000\000\000\000\000\000\000\000\000\000\000\000\000\000\000\001\000\000\000\001\000\000\000\000\000\000\000\000\000\000\000\000\000\000\000\001\000\000\000\001\000\000\000\000\000\000\000\000\000\000\000\000\000\000\000\000\000\000\000\000\000\000\000\000\000\000\000\000\000\000\000\000\000\000\000\000\000\000\000\000\000\000\000\000\000\000\000\000\000\000\000\000\000\000\000\000\000\000\000\000\000\000\000\000\000\000\000\000\000\000\000\000\000\000\000\000\000\000\000\000\000\000\000\000\000\000\000\000\000\000\000\000\000\000\000\000\000\000\000\000\000\000\000\000\000\000\000\001\000\000\000\001\000\000\000\000\000\000\000\000\000\000\000\000\000\000\000\000\000\000\000\001\000\000\000\000\000\000\000\000\000\000\000\000\000\000\000\000\000\000\000\000\000\000\000\000\000\000\000\000\000\000\000\000\000\000\000\000\000\000\000\000\000\000\000\000\000\000\000\000\000\000\000\000\000\000\000\000\000\000\000\000\000\000\000\000\000\000\000\000\000\000\000\000\000\000\000\001\000\000\000\000\000\000\000\000\000\000\000\002\000\000\000\002\000\000\000\000\000\000\000\000\000\000\000\000\000\000\000\001\000\000\000\001\000\000\000\000\000\000\000\000\000\000\000\000\000\000\000\000\000\000\000\000\000\000\000\000\000\000\000\000\000\000\000\000\000\000\000\000\000\000\000\000\000\000\000\000\000\000\000\001\000\000\000\000\000\000\000\000\000\000\000\000\000\000\000\000\000\000\000\001\000\000\000\000\000\000\000\000\000\000\000\000\000\000\000\000\000\000\000\000\000\000\000\000\000\000\000\000\000\000\000\000\000\000\000\000\000\000\000\000\000\000\000\002\000\000\000\002\000\000\000\002\000\000\000\003\000\000\000\003\000\000\000\000\000\000\000\000\000\000\000\000\000\000\000\000\000\000\000\000\000\000\000\000\000\000\000\000\000\000\000\000\000\000\000\000\000\000\000\000\000\000\000\000\000\000\000\000\000\000\000\000\000\000\000\000\000\000\000\000\000\000\000\000\000\000\000\000\000\000\000\000\000\000\000\000\000\000\000\002\000\000\000\001\000\000\000\001\000\000\000\000\000\000\000\000\000\000\000\000\000\000\000\000\000\000\000\000\000\000\000\000\000\000\000\000\000\000\000\000\000\000\000\000\000\000\000\000\000\000\000\000\000\000\000\000\000\000\000\000\000\000\000\002\000\000\000\001\000\000\000\001\000\000\000\000\000\000\000\000\000\000\000\001\000\000\000\002\000\000\000\001\000\000\000\000\000\000\000\000\000\000\000\000\000\000\000\000\000\000\000\000\000\000\000\000\000\000\000\000\000\000\000\000\000\000\000\000\000\000\000\001\000\000\000\001\000\000\000\000\000\000\000\002\000\000\000\001\000\000\000\001\000\000\000\001\000\000\000\002\000\000\000\001\000\000\000\000\000\000\000\001\000\000\000\001\000\000\000\000\000\000\000\000\000\000\000\000\000\000\000\000\000\000\000\000\000\000\000\000\000\000\000\000\000\000\000\000\000\000\000\000\000\000\000\000\000\000\000\000\000\000\000\000\000\000\000\000\000\000\000\000\000\000\000\000\000\000\000\000\000\000\000\000\000\000\000\000\000\000\000\000\000\000\000\000\000\000\000\000\000\000\000\001\000\000\000\001\000\000\000\001\000\000\000\003\000\000\000\000\000\000\000\000\000\000\000\000\000\000\000\000\000\000\000\000\000\000\000\000\000\000\000\000\000\000\000\002\000\000\000\001\000\000\000\001\000\000\000\000\000\000\000\000\000\000\000\000\000\000\000\000\000\000\000\000\000\000\000\000\000\000\000\002\000\000\000\001\000\000\000\001\000\000\000\000\000\000\000\000\000\000\000\000\000\000\000\000\000\000\000\000\000\000\000\000\000\000\000\000\000\000\000\000\000\000\000\001\000\000\000\002\000\000\000\000\000\000\000\000\000\000\000\000\000\000\000\000\000\000\000\000\000\000\000\002\000\000\000\001\000\000\000\001\000\000\000\000\000\000\000\000\000\000\000\000\000\000\000\000\000\000\000\000\000\000\000\001\000\000\000\000\000\000\000\002\000\000\000\000\000\000\000\000\000\000\000\000\000\000\000\000\000\000\000\000\000\000\000\000\000\000\000\000\000\000\000\001\000\000\000\001\000\000\000\000\000\000\000\002\000\000\000\001\000\000\000\001\000\000\000\000\000\000\000\000\000\000\000\000\000\000\000\000\000\000\000\000\000\000\000\000\000\000\000\000\000\000\000\000\000\000\000\000\000\000\000\000\000\000\000\000\000\000\000\000\000\000\000\000\000\000\000\000\000\000\000\000\000\000\000\000\000\000\000\000\000\000\000\000\000\000\000\000\000\000\000\000\000\000\000\000\000\000\000\000\000\000\000\000\000\000\000\000\000\000\000\000\000\000\000\000\000\000\000\001\000\000\000\002\000\000\000\000\000\000\000\001\000\000\000\001\000\000\000\000\000\000\000\000\000\000\000\002\000\000\000\001\000\000\000\001\000\000\000\002\000\000\000\002\000\000\000\002\000\000\000\002\000\000\000\000\000\000\000\000\000\000\000\000\000\000\000\000\000\000\000\001\000\000\000\001\000\000\000\001\000\000\000\000\000\000\000\003\000\000\000\000\000\000\000\000\000\000\000\000\000\000\000\000\000\000\000\000\000\000\000\000\000\000\000\000\000\000\000\000\000\000\000\000\000\000\000\000\000\000\000\001\000\000\000\000\000\000\000\000\000\000\000\000\000\000\000\000\000\000\000\000\000\000\000\000\000\000\000\000\000\000\000\000\000\000\000\000\000\000\000\000\000\000\000\000\000\000\000\000\000\000\000\000\000\000\000\000\000\000\000\001\000\000\000\001\000\000\000\000\000\000\000\002\000\000\000\002\000\000\000\002\000\000\000\002\000\000\000\000\000\000\000\000\000\000\000\000\000\000\000\000\000\000\000\000\000\000\000\000\000\000\000\000\000\000\000\000\000\000\000\000\000\000\000\000\000\000\000\002\000\000\000\001\000\000\000\001\000\000\000\000\000\000\000\000\000\000\000\000\000\000\000\000\000\000\000\000\000\000\000\000\000\000\000\001\000\000\000\001\000\000\000\000\000\000\000\000\000\000\000\000\000\000\000\000\000\000\000\000\000\000\000\000\000\000\000\000\000\000\000\000\000\000\000\000\000\000\000\000\000\000\000\000\000\000\000\001\000\000\000\001\000\000\000\002\000\000\000\000\000\000\000\001\000\000\000\000\000\000\000\000\000\000\000\000\000\000\000\000\000\000\000\000\000\000\000\000\000\000\000\000\000\000\000\000\000\000\000\000\000\000\000\000\000\000\000\001\000\000\000\000\000\000\000\000\000\000\000\000\000\000\000\001\000\000\000\000\000\000\000\001\000\000\000\000\000\000\000\000\000\000\000\000\000\000\000\000\000\000\000\001\000\000\000\001\000\000\000\002\000\000\000\000\000\000\000\000\000\000\000\000\000\000\000\000\000\000\000\000\000\000\000\001\000\000\000\001\000\000\000\003\000\000\000\000\000\000\000\000\000\000\000\000\000\000\000\000\000\000\000\000\000\000\000\000\000\000\000\001\000\000\000\002\000\000\000\000\000\000\000\000\000\000\000\000\000\000\000\000\000\000\000\000\000\000\000\000\000\000\000\000\000\000\000\000\000\000\000\000\000\000\000\000\000\000\000\000\000\000\000\000\000\000\000\000\000\000\000\000\000\000\000\000\000\000\000\000\000\000\000\000\000\000\000\000\000\000\000\000\000\000\000\000\000\000\000\000\000\000\000\000\000\000\000\000\000\000\000\000\000\000\000\000\000\000\000\000\000\000\000\000\000\000\000\000\000\000\000\001\000\000\000\001\000\000\000\002\000\000\000\002\000\000\000\002\000\000\000\002\000\000\000\002\000\000\000\000\000\000\000\000\000\000\000\000\000\000\000\000\000\000\000\000\000\000\000\000\000\000\000\000\000\000\000\002\000\000\000\001\000\000\000\001\000\000\000\000\000\000\000\000\000\000\000\000\000\000\000\000\000\000\000\000\000\000\000\000\000\000\000\000\000\000\000\001\000\000\000\001\000\000\000\000\000\000\000\000\000\000\000\000\000\000\000\000\000\000\000\000\000\000\000\000\000\000\000\000\000\000\000\000\000\000\000\000\000\000\000\002\000\000\000\002\000\000\000\002\000\000\000\002\000\000\000\002\000\000\000\002\000\000\000\002\000\000\000\005\000\000\000\000\000\000\000\000\000\000\000\005\000\000\000\000\000\000\000\000\000\000\000\000\000\000\000\000\000\000\000\000\000\000\000\000\000\000\000\002\000\000\000\002\000\000\000\002\000\000\000\002\000\000\000\002\000\000\000\005\000\000\000\000\000\000\000\005\000\000\000\000\000\000\000\000\000\000\000\000\000\000\000\000\000\000\000\000\000\000\000\000\000\000\000\000\000\000\000\000\000\000\000\000\000\000\000\000\000\000\000\001\000\000\000\001\000\000\000\001\000\000\000\003\000\000\000\000\000\000\000\000\000\000\000\000\000\000\000\000\000\000\000\001\000\000\000\001\000\000\000\000\000\000\000\000\000\000\000\000\000\000\000\000\000\000\000\000\000\000\000\000\000\000\000\000\000\000\000\000\000\000\000\000\000\000\000\000\000\000\000\000\000\000\000\001\000\000\000\001\000\000\000\000\000\000\000\002\000\000\000\002\000\000\000\001\000\000\000\001\000\000\000\000\000\000\000\000\000\000\000\000\000\000\000\000\000\000\000\000\000\000\000\000\000\000\000\000\000\000\000\000\000\000\000\000\000\000\000\000\000\000\000\000\000\000\000\000\000\000\000\000\000\000\000\000\000\000\000\000\000\000\000\000\000\000\000\000\000\000\000\000\000\000\000\000\000\000\000\000\000\000\000\000\000\000\000\000\000\000\000\000\000\000\000\000\000\000\000\000\000\000\000\000\000\000\000\000\000\000\000\000\000\000\000\000\000\000\000\000\000\000\000\000\000\000\000\000\000\000\000\000\000\000\000\000\000\000\000\000\000\000\000\000\000\000\000\000\000\000\000\000\000\000\000\000\000\000\000\000\000\000\000\000\000\000\000\000\000\000\000\000\000\000\000\000\000\000\000\000\000\000\000\000\000\000\000\000\000\000\000\000\000\000\000\001\000\000\000\001\000\000\000\002\000\000\000\000\000\000\000\000\000\000\000\001\000\000\000\001\000\000\000\000\000\000\000\000\000\000\000\000\000\000\000\000\000\000\000\000\000\000\000\000\000\000\000\000\000\000\000\002\000\000\000\001\000\000\000\001\000\000\000\000\000\000\000\000\000\000\000\000\000\000\000\000\000\000\000\000\000\000\000\000\000\000\000\000\000\000\000\000\000\000\000\000\000\000\000\000\000\000\000\000\000\000\000\000\000\000\000\002\000\000\000\002\000\000\000\002\000\000\000\002\000\000\000\000\000\000\000\000\000\000\000\000\000\000\000\000\000\000\000\000\000\000\000\000\000\000\000\000\000\000\000\000\000\000\000\000\000\000\000\000\000\000\000\000\000\000\000\000\000\000\000\000\000\000\000\000\000\000\000\000\000\000\000\000\000\000\000\000\000\000\000\000\000\000\000\000\000\000\000\000\000\000\000\000\000\000\000\000\000\000\000\000\000\000\000\000\000\000\000\002\000\000\000\001\000\000\000\001\000\000\000\000\000\000\000\000\000\000\000\000\000\000\000\000\000\000\000\000\000\000\000\000\000\000\000\000\000\000\000\000\000\000\000\000\000\000\000\000\000\000\000\000\000\000\000\000\000\000\000\000\000\000\000\002\000\000\000\002\000\000\000\000\000\000\000\002\000\000\000\003\000\000\000\003\000\000\000\000\000\000\000\000\000\000\000\000\000\000\000\000\000\000\000\000\000\000\000\000\000\000\000\000\000\000\000\000\000\000\000\002\000\000\000\001\000\000\000\000\000\000\000\001\000\000\000\000\000\000\000\002\000\000\000\002\000\000\000\002\000\000\000\002\000\000\000\002\000\000\000\002\000\000\000\006\000\000\000\006\000\000\000\000\000\000\000\000\000\000\000\000\000\000\000\000\000\000\000\000\000\000\000\000\000\000\000\000\000\000\000\000\000\000\000\000\000\000\000\000\000\000\000\000\000\000\000\000\000\000\000\000\000\000\000\000\000\000\000\000\000\000\000\000\000\000\000\000\000\000\000\000\000\000\000\000\000\000\000\000\000\000\000\000\000\000\000\000\000\000\000\000\000\000\000\000\000\000\000\000\000\000\000\000\000\000\000\000\000\000\000\000\000\000\000\000\000\000\000\000\000\000\000\000\000\000\000\000\000\000\000\000\000\000\000\001\000\000\000\001\000\000\000\000\000\000\000\000\000\000\000\000\000\000\000\000\000\000\000\000\000\000\000\000\000\000\000\000\000\000\000\000\000\000\000\000\000\000\000\000\000\000\000\000\000\000\000\000\000\000\000\000\000\000\000\000\000\000\000\000\000\000\000\000\000\000\000\000\000\000\000\000\000\000\000\000\000\000\000\000\000\000\000\000\000\000\000\000\000\000\000\000\000\000\000\000\000\000\000\000\000\000\000\000\000\000\000\001\000\000\000\001\000\000\000\000\000\000\000\000\000\000\000\000\000\000\000\002\000\000\000\002\000\000\000\002\000\000\000\002\000\000\000\002\000\000\000\000\000\000\000\000\000\000\000\000\000\000\000\000\000\000\000\000\000\000\000\000\000\000\000\000\000\000\000\000\000\000\000\000\000\000\000\000\000\000\000\000\000\000\000\000\000\000\000\001\000\000\000\001\000\000\000\000\000\000\000\000\000\000\000\000\000\000\000\000\000\000\000\000\000\000\000\000\000\000\000\000\000\000\000\000\000\000\000\000\000\000\000\000\000\000\000\000\000\000\000\000\000\000\000\000\000\000\000\000\000\000\000\000\000\000\000\000\000\000\000\002\000\000\000\001\000\000\000\001\000\000\000\001\000\000\000\001\000\000\000\002\000\000\000\000\000\000\000\000\000\000\000\000\000\000\000\000\000\000\000\000\000\000\000\000\000\000\000\000\000\000\000\000\000\000\000\000\000\000\000\000\000\000\000\000\000\000\000\000\000\000\000\000\000\000\000\000\000\000\000\001\000\000\000\001\000\000\000\001\000\000\000\001\000\000\000\004\000\000\000\000\000\000\000\000\000\000\000\000\000\000\000\000\000\000\000\000\000\000\000\000\000\000\000\000\000\000\000\000\000\000\000\000\000\000\000\000\000\000\000\000\000\000\000\000\000\000\000\000\000\000\000\000\000\000\000\000\000\000\000\000\000\000\000\000\000\000\000\000\000\000\000\000\000\000\000\000\000\000\000\000\000\000\000\000\000\000\000\000\000\000\000\000\000\000\000\000\000\000\000\000\000\000\000\000\000\000\000\000\000\000\000\000\000\000\000\000\000\000\000\000\000\000\000\000\000\000\000\000\000\000\000\000\000\000\000\000\000\000\000\000\000\000\000\000\000\000\000\000\000\000\000\000\000\000\000\000\000\000\000\000\000\000\000\000\000\000\000\000\000\000\000\000\000\000\000\000\000\000\000\000\000\000\000\000\000\000\000\000\000\000\000\000\000\000\000\000\000\000\000\000\000\000\000\000\000\000\000\000\000\000\000\000\000\000\000\000\000\000\000\000\000\000\000\000\000\000\000\000\000\000\000\000\000\000\000\000\000\000\000\000\000\000\000\000\000\000\000\000\000\000\000\000\000\000\000\000\000\000\000\000\000\000\000\001\000\000\000\001\000\000\000\000\000\000\000\000\000\000\000\000\000\000\000\000\000\000\000\000\000\000\000\000\000\000\000\000\000\000\000\001\000\000\000\001\000\000\000\002\000\000\000\000\000\000\000\000\000\000\000\000\000\000\000\000\000\000\000\000\000\000\000\000\000\000\000\000\000\000\000\000\000\000\000\000\000\000\000\000\000\000\000"
      }
    }
  }
}
node {
  name: "tensors/component_3"
  op: "Const"
  device: "/device:CPU:0"
  attr {
    key: "_output_shapes"
    value {
      list {
        shape {
          dim {
            size: 1047
          }
        }
      }
    }
  }
  attr {
    key: "dtype"
    value {
      type: DT_INT32
    }
  }
  attr {
    key: "value"
    value {
      tensor {
        dtype: DT_INT32
        tensor_shape {
          dim {
            size: 1047
          }
        }
        tensor_content: "\001\000\000\000\001\000\000\000\001\000\000\000\001\000\000\000\001\000\000\000\001\000\000\000\001\000\000\000\001\000\000\000\001\000\000\000\001\000\000\000\001\000\000\000\001\000\000\000\001\000\000\000\001\000\000\000\001\000\000\000\001\000\000\000\001\000\000\000\001\000\000\000\001\000\000\000\001\000\000\000\001\000\000\000\001\000\000\000\001\000\000\000\001\000\000\000\001\000\000\000\001\000\000\000\001\000\000\000\001\000\000\000\001\000\000\000\001\000\000\000\001\000\000\000\001\000\000\000\001\000\000\000\001\000\000\000\001\000\000\000\001\000\000\000\001\000\000\000\001\000\000\000\001\000\000\000\001\000\000\000\001\000\000\000\001\000\000\000\001\000\000\000\001\000\000\000\001\000\000\000\001\000\000\000\001\000\000\000\001\000\000\000\001\000\000\000\001\000\000\000\001\000\000\000\001\000\000\000\001\000\000\000\001\000\000\000\001\000\000\000\001\000\000\000\001\000\000\000\001\000\000\000\001\000\000\000\001\000\000\000\001\000\000\000\001\000\000\000\001\000\000\000\001\000\000\000\001\000\000\000\001\000\000\000\001\000\000\000\001\000\000\000\001\000\000\000\001\000\000\000\001\000\000\000\001\000\000\000\001\000\000\000\001\000\000\000\001\000\000\000\001\000\000\000\001\000\000\000\001\000\000\000\001\000\000\000\001\000\000\000\001\000\000\000\001\000\000\000\001\000\000\000\001\000\000\000\001\000\000\000\001\000\000\000\001\000\000\000\001\000\000\000\001\000\000\000\001\000\000\000\001\000\000\000\001\000\000\000\001\000\000\000\001\000\000\000\001\000\000\000\001\000\000\000\001\000\000\000\001\000\000\000\001\000\000\000\001\000\000\000\001\000\000\000\001\000\000\000\001\000\000\000\001\000\000\000\001\000\000\000\001\000\000\000\001\000\000\000\001\000\000\000\001\000\000\000\001\000\000\000\001\000\000\000\001\000\000\000\001\000\000\000\001\000\000\000\001\000\000\000\001\000\000\000\001\000\000\000\001\000\000\000\001\000\000\000\001\000\000\000\001\000\000\000\001\000\000\000\001\000\000\000\001\000\000\000\001\000\000\000\001\000\000\000\001\000\000\000\001\000\000\000\001\000\000\000\001\000\000\000\001\000\000\000\001\000\000\000\001\000\000\000\001\000\000\000\001\000\000\000\001\000\000\000\001\000\000\000\001\000\000\000\001\000\000\000\001\000\000\000\001\000\000\000\001\000\000\000\001\000\000\000\001\000\000\000\001\000\000\000\001\000\000\000\001\000\000\000\001\000\000\000\001\000\000\000\001\000\000\000\001\000\000\000\001\000\000\000\001\000\000\000\001\000\000\000\001\000\000\000\001\000\000\000\001\000\000\000\001\000\000\000\001\000\000\000\001\000\000\000\001\000\000\000\001\000\000\000\001\000\000\000\001\000\000\000\001\000\000\000\001\000\000\000\001\000\000\000\001\000\000\000\001\000\000\000\001\000\000\000\001\000\000\000\001\000\000\000\001\000\000\000\001\000\000\000\001\000\000\000\001\000\000\000\001\000\000\000\001\000\000\000\001\000\000\000\001\000\000\000\001\000\000\000\001\000\000\000\001\000\000\000\001\000\000\000\001\000\000\000\001\000\000\000\001\000\000\000\001\000\000\000\001\000\000\000\001\000\000\000\001\000\000\000\001\000\000\000\001\000\000\000\001\000\000\000\001\000\000\000\001\000\000\000\001\000\000\000\001\000\000\000\001\000\000\000\001\000\000\000\001\000\000\000\001\000\000\000\001\000\000\000\001\000\000\000\001\000\000\000\001\000\000\000\001\000\000\000\001\000\000\000\001\000\000\000\001\000\000\000\001\000\000\000\001\000\000\000\001\000\000\000\001\000\000\000\001\000\000\000\001\000\000\000\001\000\000\000\001\000\000\000\001\000\000\000\001\000\000\000\001\000\000\000\001\000\000\000\001\000\000\000\001\000\000\000\001\000\000\000\001\000\000\000\001\000\000\000\001\000\000\000\001\000\000\000\001\000\000\000\001\000\000\000\001\000\000\000\001\000\000\000\001\000\000\000\001\000\000\000\001\000\000\000\001\000\000\000\001\000\000\000\001\000\000\000\001\000\000\000\001\000\000\000\001\000\000\000\001\000\000\000\001\000\000\000\001\000\000\000\001\000\000\000\001\000\000\000\001\000\000\000\001\000\000\000\001\000\000\000\001\000\000\000\001\000\000\000\001\000\000\000\001\000\000\000\001\000\000\000\001\000\000\000\001\000\000\000\001\000\000\000\001\000\000\000\001\000\000\000\001\000\000\000\001\000\000\000\001\000\000\000\001\000\000\000\001\000\000\000\001\000\000\000\001\000\000\000\001\000\000\000\001\000\000\000\001\000\000\000\001\000\000\000\001\000\000\000\001\000\000\000\001\000\000\000\001\000\000\000\001\000\000\000\001\000\000\000\001\000\000\000\001\000\000\000\001\000\000\000\001\000\000\000\001\000\000\000\001\000\000\000\001\000\000\000\001\000\000\000\001\000\000\000\001\000\000\000\001\000\000\000\001\000\000\000\001\000\000\000\001\000\000\000\001\000\000\000\001\000\000\000\001\000\000\000\001\000\000\000\001\000\000\000\001\000\000\000\001\000\000\000\001\000\000\000\001\000\000\000\001\000\000\000\001\000\000\000\001\000\000\000\001\000\000\000\001\000\000\000\001\000\000\000\001\000\000\000\001\000\000\000\001\000\000\000\001\000\000\000\001\000\000\000\001\000\000\000\001\000\000\000\001\000\000\000\001\000\000\000\001\000\000\000\001\000\000\000\001\000\000\000\001\000\000\000\001\000\000\000\001\000\000\000\001\000\000\000\001\000\000\000\002\000\000\000\002\000\000\000\002\000\000\000\002\000\000\000\002\000\000\000\002\000\000\000\002\000\000\000\002\000\000\000\002\000\000\000\002\000\000\000\002\000\000\000\002\000\000\000\002\000\000\000\002\000\000\000\002\000\000\000\002\000\000\000\002\000\000\000\002\000\000\000\002\000\000\000\002\000\000\000\002\000\000\000\002\000\000\000\002\000\000\000\002\000\000\000\002\000\000\000\002\000\000\000\002\000\000\000\002\000\000\000\002\000\000\000\002\000\000\000\002\000\000\000\002\000\000\000\002\000\000\000\002\000\000\000\002\000\000\000\002\000\000\000\002\000\000\000\002\000\000\000\002\000\000\000\002\000\000\000\002\000\000\000\002\000\000\000\002\000\000\000\002\000\000\000\002\000\000\000\002\000\000\000\002\000\000\000\002\000\000\000\002\000\000\000\002\000\000\000\002\000\000\000\002\000\000\000\002\000\000\000\002\000\000\000\002\000\000\000\002\000\000\000\002\000\000\000\002\000\000\000\002\000\000\000\002\000\000\000\002\000\000\000\002\000\000\000\002\000\000\000\002\000\000\000\002\000\000\000\002\000\000\000\002\000\000\000\002\000\000\000\002\000\000\000\002\000\000\000\002\000\000\000\002\000\000\000\002\000\000\000\002\000\000\000\002\000\000\000\002\000\000\000\002\000\000\000\002\000\000\000\002\000\000\000\002\000\000\000\002\000\000\000\002\000\000\000\002\000\000\000\002\000\000\000\002\000\000\000\002\000\000\000\002\000\000\000\002\000\000\000\002\000\000\000\002\000\000\000\002\000\000\000\002\000\000\000\002\000\000\000\002\000\000\000\002\000\000\000\002\000\000\000\002\000\000\000\002\000\000\000\002\000\000\000\002\000\000\000\002\000\000\000\002\000\000\000\002\000\000\000\002\000\000\000\002\000\000\000\002\000\000\000\002\000\000\000\002\000\000\000\002\000\000\000\002\000\000\000\002\000\000\000\002\000\000\000\002\000\000\000\002\000\000\000\002\000\000\000\002\000\000\000\002\000\000\000\002\000\000\000\002\000\000\000\002\000\000\000\002\000\000\000\002\000\000\000\002\000\000\000\002\000\000\000\002\000\000\000\002\000\000\000\002\000\000\000\002\000\000\000\002\000\000\000\002\000\000\000\002\000\000\000\002\000\000\000\002\000\000\000\002\000\000\000\002\000\000\000\002\000\000\000\002\000\000\000\002\000\000\000\002\000\000\000\002\000\000\000\002\000\000\000\002\000\000\000\002\000\000\000\002\000\000\000\002\000\000\000\002\000\000\000\002\000\000\000\002\000\000\000\002\000\000\000\002\000\000\000\002\000\000\000\002\000\000\000\002\000\000\000\002\000\000\000\002\000\000\000\002\000\000\000\002\000\000\000\002\000\000\000\002\000\000\000\002\000\000\000\002\000\000\000\002\000\000\000\002\000\000\000\002\000\000\000\002\000\000\000\002\000\000\000\002\000\000\000\002\000\000\000\002\000\000\000\002\000\000\000\002\000\000\000\002\000\000\000\002\000\000\000\002\000\000\000\002\000\000\000\002\000\000\000\002\000\000\000\002\000\000\000\002\000\000\000\002\000\000\000\002\000\000\000\002\000\000\000\002\000\000\000\002\000\000\000\002\000\000\000\002\000\000\000\002\000\000\000\002\000\000\000\002\000\000\000\002\000\000\000\002\000\000\000\002\000\000\000\002\000\000\000\002\000\000\000\002\000\000\000\002\000\000\000\002\000\000\000\002\000\000\000\002\000\000\000\002\000\000\000\002\000\000\000\002\000\000\000\002\000\000\000\002\000\000\000\002\000\000\000\002\000\000\000\002\000\000\000\002\000\000\000\002\000\000\000\002\000\000\000\002\000\000\000\002\000\000\000\002\000\000\000\002\000\000\000\002\000\000\000\002\000\000\000\002\000\000\000\002\000\000\000\002\000\000\000\002\000\000\000\002\000\000\000\002\000\000\000\002\000\000\000\002\000\000\000\002\000\000\000\002\000\000\000\002\000\000\000\002\000\000\000\002\000\000\000\002\000\000\000\002\000\000\000\002\000\000\000\002\000\000\000\002\000\000\000\002\000\000\000\002\000\000\000\002\000\000\000\002\000\000\000\002\000\000\000\002\000\000\000\002\000\000\000\002\000\000\000\002\000\000\000\002\000\000\000\002\000\000\000\002\000\000\000\002\000\000\000\002\000\000\000\002\000\000\000\002\000\000\000\002\000\000\000\002\000\000\000\002\000\000\000\002\000\000\000\002\000\000\000\002\000\000\000\002\000\000\000\002\000\000\000\002\000\000\000\002\000\000\000\002\000\000\000\002\000\000\000\002\000\000\000\002\000\000\000\002\000\000\000\002\000\000\000\002\000\000\000\002\000\000\000\002\000\000\000\002\000\000\000\002\000\000\000\002\000\000\000\002\000\000\000\002\000\000\000\002\000\000\000\002\000\000\000\002\000\000\000\003\000\000\000\003\000\000\000\003\000\000\000\003\000\000\000\003\000\000\000\003\000\000\000\003\000\000\000\003\000\000\000\003\000\000\000\003\000\000\000\003\000\000\000\003\000\000\000\003\000\000\000\003\000\000\000\003\000\000\000\003\000\000\000\003\000\000\000\003\000\000\000\003\000\000\000\003\000\000\000\003\000\000\000\003\000\000\000\003\000\000\000\003\000\000\000\003\000\000\000\003\000\000\000\003\000\000\000\003\000\000\000\003\000\000\000\003\000\000\000\003\000\000\000\003\000\000\000\003\000\000\000\003\000\000\000\003\000\000\000\003\000\000\000\003\000\000\000\003\000\000\000\003\000\000\000\003\000\000\000\003\000\000\000\003\000\000\000\003\000\000\000\003\000\000\000\003\000\000\000\003\000\000\000\003\000\000\000\003\000\000\000\003\000\000\000\003\000\000\000\003\000\000\000\003\000\000\000\003\000\000\000\003\000\000\000\003\000\000\000\003\000\000\000\003\000\000\000\003\000\000\000\003\000\000\000\003\000\000\000\003\000\000\000\003\000\000\000\003\000\000\000\003\000\000\000\003\000\000\000\003\000\000\000\003\000\000\000\003\000\000\000\003\000\000\000\003\000\000\000\003\000\000\000\003\000\000\000\003\000\000\000\003\000\000\000\003\000\000\000\003\000\000\000\003\000\000\000\003\000\000\000\003\000\000\000\003\000\000\000\003\000\000\000\003\000\000\000\003\000\000\000\003\000\000\000\003\000\000\000\003\000\000\000\003\000\000\000\003\000\000\000\003\000\000\000\003\000\000\000\003\000\000\000\003\000\000\000\003\000\000\000\003\000\000\000\003\000\000\000\003\000\000\000\003\000\000\000\003\000\000\000\003\000\000\000\003\000\000\000\003\000\000\000\003\000\000\000\003\000\000\000\003\000\000\000\003\000\000\000\003\000\000\000\003\000\000\000\003\000\000\000\003\000\000\000\003\000\000\000\003\000\000\000\003\000\000\000\003\000\000\000\003\000\000\000\003\000\000\000\003\000\000\000\003\000\000\000\003\000\000\000\003\000\000\000\003\000\000\000\003\000\000\000\003\000\000\000\003\000\000\000\003\000\000\000\003\000\000\000\003\000\000\000\003\000\000\000\003\000\000\000\003\000\000\000\003\000\000\000\003\000\000\000\003\000\000\000\003\000\000\000\003\000\000\000\003\000\000\000\003\000\000\000\003\000\000\000\003\000\000\000\003\000\000\000\003\000\000\000\003\000\000\000\003\000\000\000\003\000\000\000\003\000\000\000\003\000\000\000\003\000\000\000\003\000\000\000\003\000\000\000\003\000\000\000\003\000\000\000\003\000\000\000\003\000\000\000\003\000\000\000\003\000\000\000\003\000\000\000\003\000\000\000\003\000\000\000\003\000\000\000\003\000\000\000\003\000\000\000\003\000\000\000\003\000\000\000\003\000\000\000\003\000\000\000\003\000\000\000\003\000\000\000\003\000\000\000\003\000\000\000\003\000\000\000\003\000\000\000\003\000\000\000\003\000\000\000\003\000\000\000\003\000\000\000\003\000\000\000\003\000\000\000\003\000\000\000\003\000\000\000\003\000\000\000\003\000\000\000\003\000\000\000\003\000\000\000\003\000\000\000\003\000\000\000\003\000\000\000\003\000\000\000\003\000\000\000\003\000\000\000\003\000\000\000\003\000\000\000\003\000\000\000\003\000\000\000\003\000\000\000\003\000\000\000\003\000\000\000\003\000\000\000\003\000\000\000\003\000\000\000\003\000\000\000\003\000\000\000\003\000\000\000\003\000\000\000\003\000\000\000\003\000\000\000\003\000\000\000\003\000\000\000\003\000\000\000\003\000\000\000\003\000\000\000\003\000\000\000\003\000\000\000\003\000\000\000\003\000\000\000\003\000\000\000\003\000\000\000\003\000\000\000\003\000\000\000\003\000\000\000\003\000\000\000\003\000\000\000\003\000\000\000\003\000\000\000\003\000\000\000\003\000\000\000\003\000\000\000\003\000\000\000\003\000\000\000\003\000\000\000\003\000\000\000\003\000\000\000\003\000\000\000\003\000\000\000\003\000\000\000\003\000\000\000\003\000\000\000\003\000\000\000\003\000\000\000\003\000\000\000\003\000\000\000\003\000\000\000\003\000\000\000\003\000\000\000\003\000\000\000\003\000\000\000\003\000\000\000\003\000\000\000\003\000\000\000\003\000\000\000\003\000\000\000\003\000\000\000\003\000\000\000\003\000\000\000\003\000\000\000\003\000\000\000\003\000\000\000\003\000\000\000\003\000\000\000\003\000\000\000\003\000\000\000\003\000\000\000\003\000\000\000\003\000\000\000\003\000\000\000\003\000\000\000\003\000\000\000\003\000\000\000\003\000\000\000\003\000\000\000\003\000\000\000\003\000\000\000\003\000\000\000\003\000\000\000\003\000\000\000\003\000\000\000\003\000\000\000\003\000\000\000\003\000\000\000\003\000\000\000\003\000\000\000\003\000\000\000\003\000\000\000\003\000\000\000\003\000\000\000\003\000\000\000\003\000\000\000\003\000\000\000\003\000\000\000\003\000\000\000\003\000\000\000\003\000\000\000\003\000\000\000\003\000\000\000\003\000\000\000\003\000\000\000\003\000\000\000\003\000\000\000\003\000\000\000\003\000\000\000\003\000\000\000\003\000\000\000\003\000\000\000\003\000\000\000\003\000\000\000\003\000\000\000\003\000\000\000\003\000\000\000\003\000\000\000\003\000\000\000\003\000\000\000\003\000\000\000\003\000\000\000\003\000\000\000\003\000\000\000\003\000\000\000\003\000\000\000\003\000\000\000\003\000\000\000\003\000\000\000\003\000\000\000\003\000\000\000\003\000\000\000\003\000\000\000\003\000\000\000\003\000\000\000\003\000\000\000\003\000\000\000\003\000\000\000\003\000\000\000\003\000\000\000\003\000\000\000\003\000\000\000\003\000\000\000\003\000\000\000\003\000\000\000\003\000\000\000\003\000\000\000\003\000\000\000\003\000\000\000\003\000\000\000\003\000\000\000\003\000\000\000\003\000\000\000\003\000\000\000\003\000\000\000\003\000\000\000\003\000\000\000\003\000\000\000\003\000\000\000\003\000\000\000\003\000\000\000\003\000\000\000\003\000\000\000\003\000\000\000\003\000\000\000\003\000\000\000\003\000\000\000\003\000\000\000\003\000\000\000\003\000\000\000\003\000\000\000\003\000\000\000\003\000\000\000\003\000\000\000\003\000\000\000\003\000\000\000\003\000\000\000\003\000\000\000\003\000\000\000\003\000\000\000\003\000\000\000\003\000\000\000\003\000\000\000\003\000\000\000\003\000\000\000\003\000\000\000\003\000\000\000\003\000\000\000\003\000\000\000\003\000\000\000\003\000\000\000\003\000\000\000\003\000\000\000\003\000\000\000\003\000\000\000\003\000\000\000\003\000\000\000\003\000\000\000\003\000\000\000\003\000\000\000\003\000\000\000\003\000\000\000\003\000\000\000\003\000\000\000\003\000\000\000\003\000\000\000\003\000\000\000\003\000\000\000\003\000\000\000\003\000\000\000\003\000\000\000\003\000\000\000\003\000\000\000\003\000\000\000\003\000\000\000\003\000\000\000\003\000\000\000\003\000\000\000\003\000\000\000\003\000\000\000\003\000\000\000\003\000\000\000\003\000\000\000\003\000\000\000\003\000\000\000\003\000\000\000\003\000\000\000\003\000\000\000\003\000\000\000\003\000\000\000\003\000\000\000\003\000\000\000\003\000\000\000\003\000\000\000\003\000\000\000\003\000\000\000\003\000\000\000\003\000\000\000\003\000\000\000\003\000\000\000\003\000\000\000\003\000\000\000\003\000\000\000\003\000\000\000\003\000\000\000\003\000\000\000\003\000\000\000\003\000\000\000\003\000\000\000\003\000\000\000\003\000\000\000\003\000\000\000\003\000\000\000\003\000\000\000\003\000\000\000\003\000\000\000\003\000\000\000\003\000\000\000"
      }
    }
  }
}
node {
  name: "tensors/component_4"
  op: "Const"
  device: "/device:CPU:0"
  attr {
    key: "_output_shapes"
    value {
      list {
        shape {
          dim {
            size: 1047
          }
        }
      }
    }
  }
  attr {
    key: "dtype"
    value {
      type: DT_INT32
    }
  }
  attr {
    key: "value"
    value {
      tensor {
        dtype: DT_INT32
        tensor_shape {
          dim {
            size: 1047
          }
        }
        tensor_content: "\000\000\000\000\001\000\000\000\001\000\000\000\001\000\000\000\001\000\000\000\000\000\000\000\001\000\000\000\000\000\000\000\002\000\000\000\000\000\000\000\001\000\000\000\001\000\000\000\000\000\000\000\000\000\000\000\000\000\000\000\000\000\000\000\000\000\000\000\000\000\000\000\000\000\000\000\000\000\000\000\001\000\000\000\001\000\000\000\000\000\000\000\000\000\000\000\000\000\000\000\000\000\000\000\001\000\000\000\001\000\000\000\000\000\000\000\000\000\000\000\000\000\000\000\000\000\000\000\000\000\000\000\000\000\000\000\000\000\000\000\000\000\000\000\000\000\000\000\000\000\000\000\000\000\000\000\000\000\000\000\000\000\000\000\000\000\000\000\002\000\000\000\000\000\000\000\000\000\000\000\000\000\000\000\000\000\000\000\000\000\000\000\000\000\000\000\000\000\000\000\000\000\000\000\000\000\000\000\000\000\000\000\000\000\000\000\001\000\000\000\001\000\000\000\001\000\000\000\001\000\000\000\000\000\000\000\000\000\000\000\001\000\000\000\001\000\000\000\001\000\000\000\001\000\000\000\001\000\000\000\001\000\000\000\000\000\000\000\000\000\000\000\000\000\000\000\000\000\000\000\000\000\000\000\001\000\000\000\001\000\000\000\000\000\000\000\000\000\000\000\000\000\000\000\001\000\000\000\001\000\000\000\000\000\000\000\002\000\000\000\000\000\000\000\001\000\000\000\000\000\000\000\001\000\000\000\001\000\000\000\001\000\000\000\000\000\000\000\000\000\000\000\000\000\000\000\001\000\000\000\001\000\000\000\001\000\000\000\001\000\000\000\001\000\000\000\000\000\000\000\001\000\000\000\001\000\000\000\001\000\000\000\001\000\000\000\001\000\000\000\001\000\000\000\000\000\000\000\000\000\000\000\000\000\000\000\001\000\000\000\000\000\000\000\000\000\000\000\000\000\000\000\000\000\000\000\000\000\000\000\000\000\000\000\003\000\000\000\003\000\000\000\003\000\000\000\003\000\000\000\001\000\000\000\001\000\000\000\000\000\000\000\000\000\000\000\002\000\000\000\001\000\000\000\001\000\000\000\000\000\000\000\001\000\000\000\001\000\000\000\000\000\000\000\001\000\000\000\001\000\000\000\000\000\000\000\000\000\000\000\000\000\000\000\000\000\000\000\000\000\000\000\001\000\000\000\001\000\000\000\000\000\000\000\000\000\000\000\000\000\000\000\000\000\000\000\000\000\000\000\000\000\000\000\000\000\000\000\000\000\000\000\001\000\000\000\001\000\000\000\001\000\000\000\001\000\000\000\000\000\000\000\001\000\000\000\001\000\000\000\000\000\000\000\000\000\000\000\000\000\000\000\000\000\000\000\001\000\000\000\001\000\000\000\000\000\000\000\000\000\000\000\000\000\000\000\000\000\000\000\000\000\000\000\001\000\000\000\001\000\000\000\001\000\000\000\000\000\000\000\001\000\000\000\000\000\000\000\001\000\000\000\000\000\000\000\000\000\000\000\000\000\000\000\000\000\000\000\000\000\000\000\000\000\000\000\000\000\000\000\001\000\000\000\001\000\000\000\001\000\000\000\001\000\000\000\000\000\000\000\000\000\000\000\000\000\000\000\000\000\000\000\000\000\000\000\000\000\000\000\000\000\000\000\000\000\000\000\000\000\000\000\000\000\000\000\000\000\000\000\000\000\000\000\000\000\000\000\000\000\000\000\000\000\000\000\000\000\000\000\000\000\000\000\000\000\000\000\001\000\000\000\001\000\000\000\000\000\000\000\000\000\000\000\000\000\000\000\000\000\000\000\001\000\000\000\001\000\000\000\000\000\000\000\002\000\000\000\001\000\000\000\001\000\000\000\001\000\000\000\000\000\000\000\000\000\000\000\000\000\000\000\001\000\000\000\001\000\000\000\000\000\000\000\000\000\000\000\000\000\000\000\000\000\000\000\000\000\000\000\000\000\000\000\000\000\000\000\000\000\000\000\000\000\000\000\000\000\000\000\000\000\000\000\001\000\000\000\001\000\000\000\001\000\000\000\001\000\000\000\000\000\000\000\000\000\000\000\000\000\000\000\000\000\000\000\000\000\000\000\000\000\000\000\000\000\000\000\000\000\000\000\000\000\000\000\000\000\000\000\000\000\000\000\000\000\000\000\000\000\000\000\000\000\000\000\000\000\000\000\000\000\000\000\001\000\000\000\001\000\000\000\000\000\000\000\002\000\000\000\002\000\000\000\002\000\000\000\001\000\000\000\001\000\000\000\000\000\000\000\000\000\000\000\000\000\000\000\001\000\000\000\000\000\000\000\000\000\000\000\000\000\000\000\000\000\000\000\001\000\000\000\001\000\000\000\000\000\000\000\000\000\000\000\000\000\000\000\000\000\000\000\001\000\000\000\000\000\000\000\001\000\000\000\001\000\000\000\001\000\000\000\000\000\000\000\001\000\000\000\001\000\000\000\001\000\000\000\001\000\000\000\000\000\000\000\000\000\000\000\001\000\000\000\001\000\000\000\001\000\000\000\000\000\000\000\000\000\000\000\001\000\000\000\001\000\000\000\000\000\000\000\000\000\000\000\000\000\000\000\001\000\000\000\001\000\000\000\001\000\000\000\001\000\000\000\001\000\000\000\000\000\000\000\001\000\000\000\000\000\000\000\000\000\000\000\000\000\000\000\000\000\000\000\000\000\000\000\000\000\000\000\001\000\000\000\001\000\000\000\000\000\000\000\000\000\000\000\000\000\000\000\000\000\000\000\000\000\000\000\001\000\000\000\001\000\000\000\001\000\000\000\000\000\000\000\001\000\000\000\000\000\000\000\000\000\000\000\000\000\000\000\000\000\000\000\000\000\000\000\000\000\000\000\000\000\000\000\000\000\000\000\001\000\000\000\001\000\000\000\000\000\000\000\000\000\000\000\000\000\000\000\001\000\000\000\001\000\000\000\000\000\000\000\000\000\000\000\000\000\000\000\000\000\000\000\000\000\000\000\000\000\000\000\001\000\000\000\001\000\000\000\000\000\000\000\002\000\000\000\002\000\000\000\002\000\000\000\000\000\000\000\000\000\000\000\000\000\000\000\000\000\000\000\000\000\000\000\000\000\000\000\000\000\000\000\000\000\000\000\000\000\000\000\001\000\000\000\001\000\000\000\001\000\000\000\001\000\000\000\000\000\000\000\000\000\000\000\000\000\000\000\000\000\000\000\000\000\000\000\001\000\000\000\001\000\000\000\000\000\000\000\000\000\000\000\000\000\000\000\001\000\000\000\001\000\000\000\000\000\000\000\001\000\000\000\001\000\000\000\001\000\000\000\000\000\000\000\001\000\000\000\001\000\000\000\000\000\000\000\000\000\000\000\000\000\000\000\000\000\000\000\001\000\000\000\001\000\000\000\000\000\000\000\000\000\000\000\000\000\000\000\000\000\000\000\000\000\000\000\001\000\000\000\000\000\000\000\000\000\000\000\000\000\000\000\000\000\000\000\000\000\000\000\001\000\000\000\001\000\000\000\000\000\000\000\000\000\000\000\000\000\000\000\000\000\000\000\000\000\000\000\000\000\000\000\001\000\000\000\001\000\000\000\001\000\000\000\001\000\000\000\000\000\000\000\000\000\000\000\000\000\000\000\001\000\000\000\001\000\000\000\000\000\000\000\000\000\000\000\000\000\000\000\000\000\000\000\000\000\000\000\001\000\000\000\001\000\000\000\000\000\000\000\000\000\000\000\000\000\000\000\000\000\000\000\001\000\000\000\001\000\000\000\000\000\000\000\000\000\000\000\000\000\000\000\000\000\000\000\000\000\000\000\000\000\000\000\001\000\000\000\000\000\000\000\000\000\000\000\000\000\000\000\000\000\000\000\000\000\000\000\000\000\000\000\000\000\000\000\001\000\000\000\001\000\000\000\001\000\000\000\001\000\000\000\001\000\000\000\001\000\000\000\000\000\000\000\002\000\000\000\002\000\000\000\002\000\000\000\001\000\000\000\002\000\000\000\002\000\000\000\000\000\000\000\001\000\000\000\000\000\000\000\001\000\000\000\001\000\000\000\000\000\000\000\000\000\000\000\001\000\000\000\001\000\000\000\000\000\000\000\000\000\000\000\001\000\000\000\002\000\000\000\000\000\000\000\002\000\000\000\002\000\000\000\000\000\000\000\000\000\000\000\001\000\000\000\001\000\000\000\000\000\000\000\000\000\000\000\000\000\000\000\000\000\000\000\000\000\000\000\000\000\000\000\000\000\000\000\001\000\000\000\001\000\000\000\000\000\000\000\001\000\000\000\001\000\000\000\001\000\000\000\001\000\000\000\000\000\000\000\000\000\000\000\000\000\000\000\000\000\000\000\000\000\000\000\000\000\000\000\001\000\000\000\001\000\000\000\000\000\000\000\000\000\000\000\000\000\000\000\001\000\000\000\001\000\000\000\000\000\000\000\000\000\000\000\000\000\000\000\000\000\000\000\000\000\000\000\000\000\000\000\000\000\000\000\000\000\000\000\000\000\000\000\000\000\000\000\000\000\000\000\000\000\000\000\000\000\000\000\000\000\000\000\000\000\000\000\000\000\000\000\000\000\000\000\001\000\000\000\001\000\000\000\001\000\000\000\001\000\000\000\000\000\000\000\000\000\000\000\001\000\000\000\000\000\000\000\000\000\000\000\000\000\000\000\000\000\000\000\000\000\000\000\000\000\000\000\000\000\000\000\000\000\000\000\000\000\000\000\000\000\000\000\000\000\000\000\000\000\000\000\000\000\000\000\000\000\000\000\000\000\000\000\000\000\000\000\000\000\000\000\000\000\000\000\000\000\000\000\000\000\000\000\000\000\000\000\001\000\000\000\001\000\000\000\000\000\000\000\000\000\000\000\001\000\000\000\003\000\000\000\000\000\000\000\000\000\000\000\001\000\000\000\001\000\000\000\002\000\000\000\000\000\000\000\000\000\000\000\000\000\000\000\000\000\000\000\000\000\000\000\000\000\000\000\000\000\000\000\000\000\000\000\000\000\000\000\000\000\000\000\000\000\000\000\000\000\000\000\000\000\000\000\000\000\000\000\000\000\000\000\000\000\000\000\000\000\000\000\000\000\000\000\000\000\000\000\000\000\000\000\000\000\000\000\000\000\000\000\000\000\000\000\001\000\000\000\001\000\000\000\000\000\000\000\000\000\000\000\001\000\000\000\001\000\000\000\000\000\000\000\000\000\000\000\000\000\000\000\000\000\000\000\000\000\000\000\001\000\000\000\001\000\000\000\001\000\000\000\001\000\000\000\000\000\000\000\001\000\000\000\001\000\000\000\001\000\000\000\001\000\000\000\000\000\000\000\000\000\000\000\000\000\000\000\000\000\000\000\000\000\000\000\000\000\000\000\000\000\000\000\000\000\000\000\001\000\000\000\001\000\000\000\000\000\000\000\000\000\000\000\000\000\000\000\000\000\000\000\000\000\000\000\000\000\000\000\001\000\000\000\000\000\000\000\000\000\000\000\000\000\000\000\000\000\000\000\000\000\000\000\000\000\000\000\000\000\000\000\000\000\000\000\000\000\000\000\000\000\000\000\001\000\000\000\004\000\000\000\004\000\000\000\004\000\000\000\004\000\000\000\004\000\000\000\004\000\000\000\004\000\000\000\001\000\000\000\000\000\000\000\000\000\000\000\001\000\000\000\000\000\000\000\000\000\000\000\001\000\000\000\001\000\000\000\000\000\000\000\000\000\000\000\004\000\000\000\004\000\000\000\004\000\000\000\004\000\000\000\004\000\000\000\001\000\000\000\000\000\000\000\001\000\000\000\000\000\000\000\000\000\000\000\000\000\000\000\000\000\000\000\000\000\000\000\000\000\000\000\000\000\000\000\000\000\000\000\001\000\000\000\003\000\000\000\002\000\000\000\002\000\000\000\002\000\000\000\000\000\000\000\000\000\000\000\000\000\000\000\000\000\000\000\000\000\000\000\000\000\000\000\000\000\000\000\000\000\000\000\000\000\000\000\000\000\000\000\000\000\000\000\000\000\000\000\000\000\000\000\000\000\000\000\000\000\000\000\000\000\000\000\000\000\000\000\000\000\000\000\001\000\000\000\001\000\000\000\000\000\000\000\000\000\000\000\000\000\000\000\001\000\000\000\001\000\000\000\000\000\000\000\000\000\000\000\000\000\000\000\001\000\000\000\001\000\000\000\000\000\000\000\000\000\000\000\000\000\000\000\000\000\000\000\000\000\000\000\000\000\000\000\000\000\000\000\000\000\000\000\000\000\000\000\000\000\000\000\000\000\000\000\000\000\000\000\000\000\000\000\000\000\000\000\000\000\000\000\001\000\000\000\001\000\000\000\000\000\000\000\000\000\000\000\000\000\000\000\000\000\000\000\000\000\000\000\000\000\000\000\000\000\000\000\000\000\000\000\000\000\000\000\001\000\000\000\001\000\000\000\000\000\000\000\000\000\000\000\000\000\000\000\000\000\000\000\000\000\000\000\000\000\000\000\000\000\000\000\000\000\000\000\000\000\000\000\000\000\000\000\000\000\000\000\000\000\000\000\000\000\000\000\000\000\000\000\000\000\000\000\001\000\000\000\001\000\000\000\000\000\000\000\000\000\000\000\000\000\000\000\000\000\000\000\000\000\000\000\000\000\000\000\000\000\000\000\000\000\000\000\000\000\000\000\000\000\000\000\000\000\000\000\000\000\000\000\000\000\000\000\001\000\000\000\001\000\000\000\000\000\000\000\000\000\000\000\002\000\000\000\000\000\000\000\002\000\000\000\002\000\000\000\001\000\000\000\001\000\000\000\001\000\000\000\001\000\000\000\000\000\000\000\000\000\000\000\001\000\000\000\001\000\000\000\001\000\000\000\001\000\000\000\000\000\000\000\000\000\000\000\000\000\000\000\000\000\000\000\000\000\000\000\000\000\000\000\000\000\000\000\000\000\000\000\000\000\000\000\000\000\000\000\000\000\000\000\000\000\000\000\000\000\000\000\000\000\000\000\000\000\000\000\000\000\000\000\000\000\000\000\000\000\000\000\001\000\000\000\001\000\000\000\000\000\000\000\000\000\000\000\000\000\000\000\000\000\000\000\000\000\000\000\001\000\000\000\001\000\000\000\000\000\000\000\000\000\000\000\000\000\000\000\000\000\000\000\000\000\000\000\000\000\000\000\000\000\000\000\000\000\000\000\000\000\000\000\000\000\000\000\000\000\000\000\000\000\000\000\000\000\000\000\002\000\000\000\002\000\000\000\000\000\000\000\002\000\000\000\001\000\000\000\001\000\000\000\000\000\000\000\000\000\000\000\000\000\000\000\000\000\000\000\000\000\000\000\000\000\000\000\000\000\000\000\000\000\000\000\000\000\000\000\001\000\000\000\000\000\000\000\001\000\000\000\000\000\000\000\005\000\000\000\005\000\000\000\005\000\000\000\005\000\000\000\005\000\000\000\005\000\000\000\001\000\000\000\001\000\000\000\000\000\000\000\000\000\000\000\000\000\000\000\000\000\000\000\002\000\000\000\002\000\000\000\000\000\000\000\000\000\000\000\000\000\000\000\001\000\000\000\001\000\000\000\001\000\000\000\001\000\000\000\000\000\000\000\000\000\000\000\002\000\000\000\001\000\000\000\000\000\000\000\001\000\000\000\000\000\000\000\000\000\000\000\000\000\000\000\000\000\000\000\000\000\000\000\000\000\000\000\000\000\000\000\000\000\000\000\000\000\000\000\000\000\000\000\000\000\000\000\000\000\000\000\000\000\000\000\000\000\000\000\000\000\000\000\001\000\000\000\000\000\000\000\000\000\000\000\000\000\000\000\000\000\000\000\000\000\000\000\000\000\000\000\000\000\000\000\000\000\000\000\000\000\000\000\001\000\000\000\001\000\000\000\000\000\000\000\000\000\000\000\000\000\000\000\000\000\000\000\000\000\000\000\000\000\000\000\001\000\000\000\000\000\000\000\000\000\000\000\000\000\000\000\000\000\000\000\000\000\000\000\000\000\000\000\000\000\000\000\000\000\000\000\001\000\000\000\001\000\000\000\000\000\000\000\000\000\000\000\000\000\000\000\000\000\000\000\001\000\000\000\001\000\000\000\001\000\000\000\001\000\000\000\000\000\000\000\000\000\000\000\000\000\000\000\001\000\000\000\001\000\000\000\000\000\000\000\000\000\000\000\000\000\000\000\000\000\000\000\000\000\000\000\000\000\000\000\000\000\000\000\000\000\000\000\000\000\000\000\000\000\000\000\000\000\000\000\000\000\000\000\000\000\000\000\000\000\000\000\000\000\000\000\000\000\000\000\000\000\000\000\000\000\000\000\001\000\000\000\001\000\000\000\001\000\000\000\001\000\000\000\000\000\000\000\002\000\000\000\002\000\000\000\000\000\000\000\003\000\000\000\001\000\000\000\001\000\000\000\001\000\000\000\000\000\000\000\000\000\000\000\000\000\000\000\000\000\000\000\000\000\000\000\000\000\000\000\000\000\000\000\000\000\000\000\000\000\000\000\000\000\000\000\000\000\000\000\000\000\000\000\000\000\000\000\000\000\000\000\000\000\000\000\003\000\000\000\003\000\000\000\003\000\000\000\003\000\000\000\000\000\000\000\000\000\000\000\000\000\000\000\001\000\000\000\001\000\000\000\000\000\000\000\000\000\000\000\000\000\000\000\000\000\000\000\000\000\000\000\001\000\000\000\001\000\000\000\001\000\000\000\000\000\000\000\000\000\000\000\000\000\000\000\001\000\000\000\001\000\000\000\000\000\000\000\000\000\000\000\000\000\000\000\000\000\000\000\000\000\000\000\000\000\000\000\000\000\000\000\000\000\000\000\000\000\000\000\000\000\000\000\000\000\000\000\000\000\000\000\000\000\000\000\000\000\000\000\000\000\000\000\000\000\000\000\000\000\000\000\000\000\000\000\000\000\000\000\000\000\000\000\000\000\000\000\000\000\000\000\000\000\000\000\000\000\000\000\000\000\000\000\002\000\000\000\002\000\000\000\002\000\000\000\000\000\000\000\000\000\000\000\000\000\000\000\000\000\000\000\000\000\000\000\000\000\000\000\001\000\000\000\001\000\000\000\000\000\000\000\000\000\000\000\000\000\000\000\000\000\000\000\000\000\000\000\000\000\000\000\000\000\000\000\000\000\000\000\000\000\000\000\000\000\000\000\000\000\000\000\000\000\000\000\000\000\000\000\000\000\000\000\000\000\000\000\000\000\000\000\001\000\000\000\001\000\000\000\000\000\000\000\000\000\000\000\000\000\000\000\000\000\000\000\001\000\000\000\001\000\000\000\000\000\000\000\000\000\000\000\000\000\000\000\000\000\000\000\000\000\000\000\000\000\000\000\001\000\000\000\001\000\000\000\000\000\000\000\000\000\000\000\000\000\000\000"
      }
    }
  }
}
node {
  name: "tensors/component_5"
  op: "Const"
  device: "/device:CPU:0"
  attr {
    key: "_output_shapes"
    value {
      list {
        shape {
          dim {
            size: 1047
          }
        }
      }
    }
  }
  attr {
    key: "dtype"
    value {
      type: DT_INT64
    }
  }
  attr {
    key: "value"
    value {
      tensor {
        dtype: DT_INT64
        tensor_shape {
          dim {
            size: 1047
          }
        }
